{
  "version": "1.0",
  "truncation": null,
  "padding": null,
  "added_tokens": [
    {
      "id": 0,
      "content": "<pad>",
      "single_word": false,
      "lstrip": false,
      "rstrip": false,
      "normalized": false,
      "special": true
    },
    {
      "id": 1,
      "content": "<bos>",
      "single_word": false,
      "lstrip": false,
      "rstrip": false,
      "normalized": false,
      "special": true
    },
    {
      "id": 2,
      "content": "<eos>",
      "single_word": false,
      "lstrip": false,
      "rstrip": false,
      "normalized": false,
      "special": true
    },
    {
      "id": 3,
      "content": "<unk>",
      "single_word": false,
      "lstrip": false,
      "rstrip": false,
      "normalized": false,
      "special": true
    }
  ],
  "normalizer": null,
  "pre_tokenizer": {
    "type": "ByteLevel",
    "add_prefix_space": false,
    "trim_offsets": true,
    "use_regex": true
  },
  "post_processor": null,
  "decoder": {
    "type": "ByteLevel",
    "add_prefix_space": true,
    "trim_offsets": true,
    "use_regex": true
  },
  "model": {
    "type": "BPE",
    "dropout": null,
    "unk_token": "<unk>",
    "continuing_subword_prefix": null,
    "end_of_word_suffix": null,
    "fuse_unk": false,
    "byte_fallback": false,
    "ignore_merges": false,
    "vocab": {
      "<pad>": 0,
      "<bos>": 1,
      "<eos>": 2,
      "<unk>": 3,
      "!": 4,
      "\"": 5,
      "#": 6,
      "$": 7,
      "%": 8,
      "&": 9,
      "'": 10,
      "(": 11,
      ")": 12,
      "*": 13,
      "+": 14,
      ",": 15,
      "-": 16,
      ".": 17,
      "/": 18,
      "0": 19,
      "1": 20,
      "2": 21,
      "3": 22,
      "4": 23,
      "5": 24,
      "6": 25,
      "7": 26,
      "8": 27,
      "9": 28,
      ":": 29,
      ";": 30,
      "=": 31,
      ">": 32,
      "?": 33,
      "@": 34,
      "A": 35,
      "B": 36,
      "C": 37,
      "D": 38,
      "E": 39,
      "F": 40,
      "G": 41,
      "H": 42,
      "I": 43,
      "J": 44,
      "K": 45,
      "L": 46,
      "M": 47,
      "N": 48,
      "O": 49,
      "P": 50,
      "Q": 51,
      "R": 52,
      "S": 53,
      "T": 54,
      "U": 55,
      "V": 56,
      "W": 57,
      "X": 58,
      "Y": 59,
      "Z": 60,
      "[": 61,
      "]": 62,
      "_": 63,
      "a": 64,
      "b": 65,
      "c": 66,
      "d": 67,
      "e": 68,
      "f": 69,
      "g": 70,
      "h": 71,
      "i": 72,
      "j": 73,
      "k": 74,
      "l": 75,
      "m": 76,
      "n": 77,
      "o": 78,
      "p": 79,
      "q": 80,
      "r": 81,
      "s": 82,
      "t": 83,
      "u": 84,
      "v": 85,
      "w": 86,
      "x": 87,
      "y": 88,
      "z": 89,
      "{": 90,
      "}": 91,
      "~": 92,
      "¡": 93,
      "¢": 94,
      "£": 95,
      "¤": 96,
      "¥": 97,
      "¦": 98,
      "§": 99,
      "¨": 100,
      "©": 101,
      "ª": 102,
      "«": 103,
      "¬": 104,
      "®": 105,
      "¯": 106,
      "°": 107,
      "±": 108,
      "²": 109,
      "³": 110,
      "µ": 111,
      "¶": 112,
      "·": 113,
      "¸": 114,
      "¹": 115,
      "º": 116,
      "»": 117,
      "¼": 118,
      "½": 119,
      "¾": 120,
      "¿": 121,
      "Â": 122,
      "Ã": 123,
      "Ä": 124,
      "Å": 125,
      "Æ": 126,
      "È": 127,
      "É": 128,
      "Ð": 129,
      "Ñ": 130,
      "à": 131,
      "á": 132,
      "â": 133,
      "Ġ": 134,
      "Ģ": 135,
      "ģ": 136,
      "Ĥ": 137,
      "ĥ": 138,
      "Ħ": 139,
      "ħ": 140,
      "Ĩ": 141,
      "ĩ": 142,
      "Ī": 143,
      "ī": 144,
      "Ĭ": 145,
      "ĭ": 146,
      "Į": 147,
      "į": 148,
      "ı": 149,
      "ĵ": 150,
      "Ķ": 151,
      "ķ": 152,
      "ĸ": 153,
      "Ĺ": 154,
      "ĺ": 155,
      "Ļ": 156,
      "ļ": 157,
      "Ľ": 158,
      "ľ": 159,
      "Ŀ": 160,
      "ŀ": 161,
      "Ł": 162,
      "ł": 163,
      "Ń": 164,
      "th": 165,
      "Ġth": 166,
      "Ġa": 167,
      "in": 168,
      "Ġthe": 169,
      "Ġo": 170,
      "re": 171,
      "Ġw": 172,
      "Ġs": 173,
      "nd": 174,
      "Ġh": 175,
      "er": 176,
      "Ġof": 177,
      "is": 178,
      "Ġb": 179,
      "ed": 180,
      "ing": 181,
      "ou": 182,
      "at": 183,
      "es": 184,
      "en": 185,
      "on": 186,
      "Ġf": 187,
      "ar": 188,
      "Ġt": 189,
      "Ġand": 190,
      "Ġc": 191,
      "Ġm": 192,
      "an": 193,
      "or": 194,
      "as": 195,
      "Ġd": 196,
      "ll": 197,
      "Ġp": 198,
      "Ġto": 199,
      "Ġwi": 200,
      "Ġin": 201,
      "ro": 202,
      "it": 203,
      "Ġwith": 204,
      "Ġg": 205,
      "Ġl": 206,
      "Ġbe": 207,
      "Ġy": 208,
      "Ġwh": 209,
      "ra": 210,
      "Ġe": 211,
      "ce": 212,
      "Ġyou": 213,
      "se": 214,
      "ri": 215,
      "le": 216,
      "av": 217,
      "Th": 218,
      "Ġthat": 219,
      "ow": 220,
      "Ġn": 221,
      "gh": 222,
      "al": 223,
      "Ġk": 224,
      "ti": 225,
      "Ġon": 226,
      "Ġby": 227,
      "ad": 228,
      "Ġis": 229,
      "Ġre": 230,
      "ch": 231,
      "ld": 232,
      "ir": 233,
      "im": 234,
      "ay": 235,
      "Ġhis": 236,
      "Ġhe": 237,
      "id": 238,
      "st": 239,
      "om": 240,
      "ere": 241,
      "ly": 242,
      "Ġsh": 243,
      "Ġas": 244,
      "ver": 245,
      "ĠO": 246,
      "ent": 247,
      "ĠI": 248,
      "ak": 249,
      "ot": 250,
      "Ġu": 251,
      "ish": 252,
      "ĠS": 253,
      "am": 254,
      "ght": 255,
      "and": 256,
      "Ġfor": 257,
      "Ġall": 258,
      "Ġwho": 259,
      "ĠB": 260,
      "od": 261,
      "ul": 262,
      "ur": 263,
      "Ġsa": 264,
      "ther": 265,
      "Ġli": 266,
      "Ġking": 267,
      "ain": 268,
      "ct": 269,
      "us": 270,
      "ous": 271,
      "ess": 272,
      "reat": 273,
      "ons": 274,
      "ĠK": 275,
      "Ġ(": 276,
      "Ġhav": 277,
      "Ġde": 278,
      "ore": 279,
      "Ġare": 280,
      "ke": 281,
      "ĠR": 282,
      "Ġv": 283,
      "ĠD": 284,
      "ĠA": 285,
      "The": 286,
      "Ġse": 287,
      "ut": 288,
      "Ġan": 289,
      "Ġst": 290,
      "Ġhim": 291,
      "Ġsu": 292,
      "Ġson": 293,
      "Ġyour": 294,
      "ĠP": 295,
      "Ġar": 296,
      "est": 297,
      "all": 298,
      "ers": 299,
      "res": 300,
      "Äģ": 301,
      "Ġthis": 302,
      "ight": 303,
      "Ġwas": 304,
      "ful": 305,
      "Ġme": 306,
      "Ġnot": 307,
      "ĠV": 308,
      "Ġit": 309,
      "Ġgreat": 310,
      "Ġwor": 311,
      "Ġal": 312,
      "Ġwe": 313,
      "Ġone": 314,
      "Ġsaid": 315,
      "rom": 316,
      "ds": 317,
      "ts": 318,
      "ve": 319,
      "Ġat": 320,
      "pe": 321,
      "ru": 322,
      "Ġen": 323,
      "qu": 324,
      "ic": 325,
      "ose": 326,
      "ana": 327,
      "Ġtheir": 328,
      "ion": 329,
      "ap": 330,
      "row": 331,
      "ge": 332,
      "har": 333,
      "ble": 334,
      "Ġhave": 335,
      "Ġfrom": 336,
      "ter": 337,
      "Ġher": 338,
      "na": 339,
      "ĠH": 340,
      "Ġmy": 341,
      "ould": 342,
      "Ġex": 343,
      "Ġor": 344,
      "ire": 345,
      "'s": 346,
      "ill": 347,
      "ma": 348,
      "Ġdo": 349,
      "Ġlike": 350,
      "if": 351,
      "Ġwhi": 352,
      "el": 353,
      "Ġgo": 354,
      "ear": 355,
      "Ġthose": 356,
      "Ġac": 357,
      "Ġcom": 358,
      "Ġcon": 359,
      "um": 360,
      "ost": 361,
      "sel": 362,
      "sh": 363,
      "our": 364,
      "et": 365,
      "Ġpro": 366,
      "Ġup": 367,
      "ame": 368,
      "Ġfore": 369,
      "ant": 370,
      "ĠY": 371,
      "att": 372,
      "il": 373,
      "ud": 374,
      "Ġthem": 375,
      "ck": 376,
      "Ġdes": 377,
      "Ġwhich": 378,
      "tain": 379,
      "ity": 380,
      "ĠM": 381,
      "so": 382,
      "oun": 383,
      "ered": 384,
      "au": 385,
      "Ġthere": 386,
      "rah": 387,
      "ĠTh": 388,
      "ind": 389,
      "Ġman": 390,
      "ong": 391,
      "Ġfo": 392,
      "Ġwill": 393,
      "iv": 394,
      "ies": 395,
      "ĠBrah": 396,
      "tion": 397,
      "te": 398,
      "Ġwere": 399,
      "Ġcar": 400,
      "Ġother": 401,
      "Ġshould": 402,
      "Ġhas": 403,
      "Ġdis": 404,
      "Ġhaving": 405,
      "attle": 406,
      "ious": 407,
      "rou": 408,
      "fe": 409,
      "Ġbattle": 410,
      "red": 411,
      "Ġthen": 412,
      "Ġthey": 413,
      "igh": 414,
      "now": 415,
      "ors": 416,
      "Ġad": 417,
      "Ġmen": 418,
      "self": 419,
      "Ġsp": 420,
      "led": 421,
      "very": 422,
      "tu": 423,
      "Ġhad": 424,
      "Ġbeen": 425,
      "em": 426,
      "ted": 427,
      "Ġshall": 428,
      "way": 429,
      "Ġso": 430,
      "Wh": 431,
      "ig": 432,
      "sed": 433,
      "ĠThe": 434,
      "Ġch": 435,
      "Ġag": 436,
      "ĠRÄģ": 437,
      "Ġalso": 438,
      "cri": 439,
      "arth": 440,
      "ie": 441,
      "most": 442,
      "ĠG": 443,
      "Ġra": 444,
      "ord": 445,
      "ence": 446,
      "ard": 447,
      "ome": 448,
      "ĠBh": 449,
      "ated": 450,
      "Ġr": 451,
      "ok": 452,
      "ĠBrahm": 453,
      "Ġhigh": 454,
      "Ġbeing": 455,
      "Ġbec": 456,
      "Ġthese": 457,
      "la": 458,
      "Ġun": 459,
      "Ġforemost": 460,
      "va": 461,
      "Ġam": 462,
      "os": 463,
      "Ġob": 464,
      "un": 465,
      "ven": 466,
      "Ġarm": 467,
      "Ġarrow": 468,
      "Ġne": 469,
      "Ġmight": 470,
      "Ġab": 471,
      "pp": 472,
      "Ġco": 473,
      "fore": 474,
      "ach": 475,
      "nder": 476,
      "ower": 477,
      "out": 478,
      "ast": 479,
      "esti": 480,
      "Ġknow": 481,
      "Ġaf": 482,
      "able": 483,
      "Ġtw": 484,
      "ces": 485,
      "ata": 486,
      "Ġmon": 487,
      "Ġsl": 488,
      "als": 489,
      "ĠSh": 490,
      "ath": 491,
      "orn": 492,
      "Ġcel": 493,
      "ate": 494,
      "Ġfa": 495,
      "Ġper": 496,
      "ĠPand": 497,
      "ation": 498,
      "Ġno": 499,
      "Ġcelesti": 500,
      "Ġthus": 501,
      "ya": 502,
      "And": 503,
      "mb": 504,
      "arri": 505,
      "Ġwords": 506,
      "ree": 507,
      "Ġmighty": 508,
      "ĠL": 509,
      "rie": 510,
      "Ġarrows": 511,
      "per": 512,
      "ĠN": 513,
      "Ġwhat": 514,
      "ake": 515,
      "Ġri": 516,
      "Ġhero": 517,
      "ha": 518,
      "aving": 519,
      "ĠHe": 520,
      "one": 521,
      "Ġagain": 522,
      "up": 523,
      "Ġcreat": 524,
      "ell": 525,
      "to": 526,
      "ju": 527,
      "ions": 528,
      "ice": 529,
      "own": 530,
      "tic": 531,
      "Ġacc": 532,
      "ive": 533,
      "ĠBhar": 534,
      "Ġpower": 535,
      "Ġro": 536,
      "ness": 537,
      "Ġworld": 538,
      "wn": 539,
      "Ġbow": 540,
      "Then": 541,
      "ved": 542,
      "for": 543,
      "urn": 544,
      "ure": 545,
      "ira": 546,
      "Ġdown": 547,
      "eing": 548,
      "hish": 549,
      "Ġcan": 550,
      "fic": 551,
      "ged": 552,
      "Ġbest": 553,
      "ied": 554,
      "illed": 555,
      "less": 556,
      "ist": 557,
      "Ġpers": 558,
      "art": 559,
      "Ġreg": 560,
      "irtu": 561,
      "Ġcl": 562,
      "Ġdest": 563,
      "ced": 564,
      "ust": 565,
      "ment": 566,
      "old": 567,
      "Ġres": 568,
      "cts": 569,
      "ance": 570,
      "rish": 571,
      "ands": 572,
      "Ġwhen": 573,
      "ves": 574,
      "Ġbeg": 575,
      "Ġgod": 576,
      "Ġexce": 577,
      "ise": 578,
      "Ġspe": 579,
      "Ġvirtu": 580,
      "ade": 581,
      "Ġbo": 582,
      "There": 583,
      "Ġearth": 584,
      "ound": 585,
      "Ġle": 586,
      "ga": 587,
      "Ġeven": 588,
      "ine": 589,
      "Ġmo": 590,
      "Ġhimself": 591,
      "Ġupon": 592,
      "op": 593,
      "ood": 594,
      "Ġqu": 595,
      "Ġlo": 596,
      "ction": 597,
      "Ġsin": 598,
      "Ġend": 599,
      "Ġover": 600,
      "key": 601,
      "Ġsons": 602,
      "âĢ": 603,
      "Ġsacri": 604,
      "Ġown": 605,
      "Ġany": 606,
      "Ġcons": 607,
      "Ġele": 608,
      "han": 609,
      "Ġtim": 610,
      "cted": 611,
      "ĠBharata": 612,
      "ng": 613,
      "ava": 614,
      "je": 615,
      "Ġbro": 616,
      ").": 617,
      "avas": 618,
      "Ġchar": 619,
      "thira": 620,
      "Ġim": 621,
      "aying": 622,
      "juna": 623,
      "rjuna": 624,
      "ash": 625,
      "Ġasce": 626,
      "Ġinto": 627,
      "Ġbod": 628,
      "Ġlord": 629,
      "anas": 630,
      "ÅŁ": 631,
      "ures": 632,
      "ĠT": 633,
      "Ġaway": 634,
      "af": 635,
      "Ġout": 636,
      "Ġoff": 637,
      "arriors": 638,
      "med": 639,
      "Ġcelestials": 640,
      "ull": 641,
      "Ġwell": 642,
      "Ġevery": 643,
      "Ġmany": 644,
      "ron": 645,
      "Ġtwo": 646,
      "jo": 647,
      "ip": 648,
      "ens": 649,
      "udhish": 650,
      "Ġgood": 651,
      "ressed": 652,
      "udhishthira": 653,
      "aya": 654,
      "ĠAnd": 655,
      "ings": 656,
      "Ġweap": 657,
      "ĠRish": 658,
      "rin": 659,
      "Ġmonkey": 660,
      "ans": 661,
      "semb": 662,
      "ry": 663,
      "Ġhu": 664,
      "oss": 665,
      "ards": 666,
      "Ġform": 667,
      "Ġpowerful": 668,
      "Ġelep": 669,
      "Ġtime": 670,
      "Ġvery": 671,
      "Ġtru": 672,
      "Ġenem": 673,
      "ways": 674,
      "ving": 675,
      "Ġbeh": 676,
      "ep": 677,
      "Ġpla": 678,
      "),": 679,
      "Ġafter": 680,
      "Ġacqu": 681,
      "Ġfl": 682,
      "ĠInd": 683,
      "aught": 684,
      "arna": 685,
      "Ġvi": 686,
      "leas": 687,
      "Ġunder": 688,
      "ĠRÄģma": 689,
      "Ġfear": 690,
      "tha": 691,
      "Ġmoun": 692,
      "li": 693,
      "Ġits": 694,
      "Ġfire": 695,
      "rit": 696,
      "He": 697,
      "pl": 698,
      "Ġsuch": 699,
      "ier": 700,
      "ass": 701,
      "Ġalways": 702,
      "Ġif": 703,
      "ling": 704,
      "ting": 705,
      "Ġnever": 706,
      "Ġhead": 707,
      "aking": 708,
      "ush": 709,
      "rona": 710,
      "Ġfoll": 711,
      "ĠBhim": 712,
      "Ġascetic": 713,
      "eed": 714,
      "ished": 715,
      "Ġbegan": 716,
      "Ġrace": 717,
      "Ġlife": 718,
      "ĠKur": 719,
      "jaya": 720,
      "ĠWh": 721,
      "Ġadd": 722,
      "Ġdu": 723,
      "Ġdid": 724,
      "Ġbl": 725,
      "Ġsw": 726,
      "Ġey": 727,
      "Ġthous": 728,
      "Ġcreatures": 729,
      "Having": 730,
      "cked": 731,
      "Ġhighly": 732,
      "Ġwat": 733,
      "ne": 734,
      "Ġgif": 735,
      "Ġvar": 736,
      "Ġforest": 737,
      "are": 738,
      "Ġhow": 739,
      "ol": 740,
      "ĠJ": 741,
      "Ġfollow": 742,
      "app": 743,
      "Ġpre": 744,
      "its": 745,
      "Ġday": 746,
      "ued": 747,
      "ama": 748,
      "ĠDrona": 749,
      "Ġdesire": 750,
      "Ġbrother": 751,
      "ara": 752,
      "Ġbody": 753,
      "read": 754,
      "rowess": 755,
      "Ġperfor": 756,
      "Ġthree": 757,
      "ĠArjuna": 758,
      "ĠE": 759,
      "Ġprowess": 760,
      "Ġsub": 761,
      "ger": 762,
      "Ġfe": 763,
      "rough": 764,
      "ury": 765,
      "ount": 766,
      "ala": 767,
      "Ä«": 768,
      "asas": 769,
      "Ġsome": 770,
      "Ġpleas": 771,
      "cti": 772,
      "ith": 773,
      "Ġwithout": 774,
      "pt": 775,
      "roy": 776,
      "ĠBrahmanas": 777,
      "Ġmountain": 778,
      "arch": 779,
      "Ġsee": 780,
      "ks": 781,
      "Ġgold": 782,
      "Ġbecame": 783,
      "Ġkings": 784,
      "aksh": 785,
      "ĠPandavas": 786,
      "round": 787,
      "ĠC": 788,
      "Ġpe": 789,
      "Ġcome": 790,
      "Ġour": 791,
      "Ġmade": 792,
      "ĠSu": 793,
      "iver": 794,
      "Ġent": 795,
      "Ġill": 796,
      "Ġus": 797,
      "dom": 798,
      "Ġmind": 799,
      "Ġamong": 800,
      "Ġfight": 801,
      "That": 802,
      "Ġprote": 803,
      "joy": 804,
      "Ġstre": 805,
      "Ġgra": 806,
      "Ġvarious": 807,
      "ceed": 808,
      "Ġperson": 809,
      "Ġinc": 810,
      "hana": 811,
      "Ġbefore": 812,
      "ĠYou": 813,
      "nds": 814,
      "Ġap": 815,
      "other": 816,
      "Ġener": 817,
      "ossess": 818,
      "ities": 819,
      "Ġabout": 820,
      "ber": 821,
      "Ġgrie": 822,
      "Ġter": 823,
      "rishna": 824,
      "oul": 825,
      "Ġbir": 826,
      "Ġhapp": 827,
      "Ġgods": 828,
      "ide": 829,
      "upon": 830,
      "ĠKarna": 831,
      "ci": 832,
      "tra": 833,
      "ĠThere": 834,
      "Ġlook": 835,
      "ave": 836,
      "Ġcomm": 837,
      "Ġrel": 838,
      "ĠDh": 839,
      "Ġshaf": 840,
      "Ġfather": 841,
      "llent": 842,
      "wards": 843,
      "Ġmay": 844,
      "ĠYudhishthira": 845,
      "ĠBrahmana": 846,
      "Ġthrough": 847,
      "Ġnow": 848,
      "Ġdestroy": 849,
      "Ġfrie": 850,
      "Ġpres": 851,
      "ield": 852,
      "me": 853,
      "Ġpra": 854,
      "alled": 855,
      "Ġweapons": 856,
      "Ġcomp": 857,
      "Ġresemb": 858,
      "auti": 859,
      "ik": 860,
      "asa": 861,
      "Ġarmy": 862,
      "Ġbut": 863,
      "Ġdev": 864,
      "aughter": 865,
      "bh": 866,
      "ily": 867,
      "Ġpossess": 868,
      "Ġord": 869,
      "anjaya": 870,
      "ring": 871,
      "ag": 872,
      "Ġaddressed": 873,
      "cc": 874,
      "Ġexcellent": 875,
      "Ġanother": 876,
      "ances": 877,
      "ory": 878,
      "ah": 879,
      "ady": 880,
      "Ġvirtue": 881,
      "Ġeyes": 882,
      "iot": 883,
      "Ġsk": 884,
      "alth": 885,
      "Ġmonkeys": 886,
      "ents": 887,
      "thing": 888,
      "odhana": 889,
      "Ġsor": 890,
      "Ġsacrific": 891,
      "ati": 892,
      "hants": 893,
      "Ġdel": 894,
      "Ġchariot": 895,
      "Ġrem": 896,
      "ite": 897,
      "Ġappe": 898,
      "ild": 899,
      "ĠIndra": 900,
      "ena": 901,
      "rious": 902,
      "apable": 903,
      "vered": 904,
      "aring": 905,
      "Ġbeauti": 906,
      "aka": 907,
      "Ġtre": 908,
      "ayana": 909,
      "Ġcont": 910,
      "Ġelephants": 911,
      "Ġmer": 912,
      "oke": 913,
      "Ġshe": 914,
      "Ġapp": 915,
      "Ġarms": 916,
      "ars": 917,
      "Ġhund": 918,
      "Ġshafts": 919,
      "iness": 920,
      "Ġfru": 921,
      "Ġlong": 922,
      "Ġatt": 923,
      "ress": 924,
      "âĢľ": 925,
      "ĠVed": 926,
      "cend": 927,
      "ras": 928,
      "Ġinte": 929,
      "ura": 930,
      "ited": 931,
      "ned": 932,
      "Ġcalled": 933,
      "Ġheard": 934,
      "ĠGand": 935,
      "Ġsaying": 936,
      "orses": 937,
      "Ġkilled": 938,
      "uryodhana": 939,
      "Ġwarriors": 940,
      "Ġplace": 941,
      "een": 942,
      "amp": 943,
      "lf": 944,
      "ail": 945,
      "ought": 946,
      "king": 947,
      "ĠKrishna": 948,
      "Ġbeautiful": 949,
      "ared": 950,
      "Ġcame": 951,
      "Ġgrief": 952,
      "ang": 953,
      "Ġboth": 954,
      "Ġwealth": 955,
      "Ġhorses": 956,
      "Ġenemies": 957,
      "Ġdoes": 958,
      "Ġonly": 959,
      "gy": 960,
      "Ġslain": 961,
      "ough": 962,
      "Ġwater": 963,
      "fice": 964,
      "Ġdep": 965,
      "Ġheav": 966,
      "ĠPandu": 967,
      "olding": 968,
      "ĠAs": 969,
      "Ġgiv": 970,
      "ada": 971,
      "vers": 972,
      "of": 973,
      "Ġway": 974,
      "Ġheart": 975,
      "ĠIt": 976,
      "ledge": 977,
      "Ġtowards": 978,
      "eous": 979,
      "ĠW": 980,
      "ÅĨ": 981,
      "Ġgreatly": 982,
      "Ġwent": 983,
      "ĠVas": 984,
      "Ġobtain": 985,
      "arash": 986,
      "Ġdeath": 987,
      "Ġprin": 988,
      "Ġrul": 989,
      "Ġborn": 990,
      "ĠU": 991,
      "Ġdescend": 992,
      "Ġright": 993,
      "Ġintell": 994,
      "Ġacts": 995,
      "ngth": 996,
      "atri": 997,
      "Ġhere": 998,
      "Ġcelestial": 999,
      "Ġact": 1000,
      "Ġtherefore": 1001,
      "ĠF": 1002,
      "ins": 1003,
      "Ġkingdom": 1004,
      "Ġstrength": 1005,
      "ations": 1006,
      "Ġenergy": 1007,
      "Ġwhose": 1008,
      "cept": 1009,
      "Ġsun": 1010,
      "In": 1011,
      "Ġever": 1012,
      "ark": 1013,
      "ult": 1014,
      "ritarash": 1015,
      "Ġfir": 1016,
      "Ġothers": 1017,
      "vas": 1018,
      "Ġeach": 1019,
      "Ġinf": 1020,
      "Ġass": 1021,
      "Ġmonarch": 1022,
      "Ġnor": 1023,
      "ritarashtra": 1024,
      "You": 1025,
      "ĠKsh": 1026,
      "Ġser": 1027,
      "ever": 1028,
      "ally": 1029,
      "Ġseen": 1030,
      "Ġhands": 1031,
      "ace": 1032,
      "Ġpier": 1033,
      "Ġwish": 1034,
      "ustrious": 1035,
      "the": 1036,
      "Ġef": 1037,
      "ĠBhish": 1038,
      "aish": 1039,
      "ouled": 1040,
      "earing": 1041,
      ".\"": 1042,
      "Ġspoke": 1043,
      "ties": 1044,
      "Ġlive": 1045,
      "Ġillustrious": 1046,
      "cing": 1047,
      "mit": 1048,
      "ign": 1049,
      "Ġind": 1050,
      "ĠBhishma": 1051,
      "Ġattain": 1052,
      "Ġworsh": 1053,
      "Ġconsid": 1054,
      "ĠBhima": 1055,
      "Ġpo": 1056,
      "When": 1057,
      "Ġwhere": 1058,
      "Ġobje": 1059,
      "Ġresembling": 1060,
      "Ġenga": 1061,
      "ix": 1062,
      "Ġpersons": 1063,
      "Ġthousand": 1064,
      "ack": 1065,
      "Ġchild": 1066,
      "aks": 1067,
      "Ġdaughter": 1068,
      "Ġfilled": 1069,
      "ating": 1070,
      "Ġmeans": 1071,
      "eer": 1072,
      "ĠThen": 1073,
      "Ġrespe": 1074,
      "ĠâĢľ": 1075,
      "akes": 1076,
      "Ġpen": 1077,
      "Ġterri": 1078,
      "kÅŁ": 1079,
      "à¤": 1080,
      "ĠRishi": 1081,
      "Ġsaw": 1082,
      "Ġbecome": 1083,
      "fli": 1084,
      "Ġfall": 1085,
      "Ġcould": 1086,
      "Ġintellig": 1087,
      ".,": 1088,
      "ĠDuryodhana": 1089,
      "ÅĨa": 1090,
      "yas": 1091,
      "amed": 1092,
      "Ġseeing": 1093,
      "Ġknowledge": 1094,
      "Ġlear": 1095,
      "Ġequ": 1096,
      "Ġfull": 1097,
      "Ġpl": 1098,
      "Ġfoes": 1099,
      "Ġtruth": 1100,
      "ile": 1101,
      "souled": 1102,
      "Ġaccom": 1103,
      "Ġheroes": 1104,
      "Ġperform": 1105,
      "Ġdelight": 1106,
      "Thereupon": 1107,
      "Ġ:": 1108,
      "ort": 1109,
      "Ġname": 1110,
      "Ġfour": 1111,
      "ears": 1112,
      "Ġbet": 1113,
      "Ġgr": 1114,
      "Ġclou": 1115,
      "Ġrec": 1116,
      "uch": 1117,
      "ingly": 1118,
      "rig": 1119,
      "air": 1120,
      "Ġwife": 1121,
      "Ġwould": 1122,
      "Ġnight": 1123,
      "Ġret": 1124,
      "Ġwom": 1125,
      "Ġslay": 1126,
      "iverse": 1127,
      "ertain": 1128,
      "Ġdread": 1129,
      "ĠVedas": 1130,
      "Ġfield": 1131,
      "ĠRishis": 1132,
      "Ġsur": 1133,
      "Ġacquire": 1134,
      "ank": 1135,
      "eds": 1136,
      "Ġbecom": 1137,
      "Ġsacrifice": 1138,
      "Ġcovered": 1139,
      "ĠKshatri": 1140,
      "ni": 1141,
      "ments": 1142,
      "Ġdist": 1143,
      "ĠDo": 1144,
      "Ġsens": 1145,
      "Ġproper": 1146,
      "age": 1147,
      "Ġrep": 1148,
      "not": 1149,
      "les": 1150,
      "owers": 1151,
      "Ġanger": 1152,
      "Ġendued": 1153,
      "ked": 1154,
      "uty": 1155,
      "ruction": 1156,
      "eeing": 1157,
      "du": 1158,
      "asena": 1159,
      "Ġdreadful": 1160,
      "Ġdescendant": 1161,
      "ser": 1162,
      "any": 1163,
      "Ġagainst": 1164,
      "anch": 1165,
      "Ġenc": 1166,
      "he": 1167,
      "inds": 1168,
      "Ġsoul": 1169,
      "Ġself": 1170,
      "Ġpossessed": 1171,
      "ĠKuru": 1172,
      "ief": 1173,
      "Ġ\"": 1174,
      "rived": 1175,
      "Ġheaven": 1176,
      "Ġviz": 1177,
      "ĠGandhar": 1178,
      "ning": 1179,
      "eh": 1180,
      "oth": 1181,
      "warriors": 1182,
      "arge": 1183,
      "Ġdif": 1184,
      "Ġsm": 1185,
      "Ġhappiness": 1186,
      "anding": 1187,
      "Ġliving": 1188,
      "Ġkill": 1189,
      "As": 1190,
      "ĠBrahma": 1191,
      "Ġtake": 1192,
      "man": 1193,
      "Ġsenses": 1194,
      "Ġhowever": 1195,
      "ĠRaksh": 1196,
      "Ġproceed": 1197,
      "Ġcut": 1198,
      "ĠDhritarashtra": 1199,
      "Ġengaged": 1200,
      "Ġmore": 1201,
      "ĠDe": 1202,
      "Ġwhile": 1203,
      "ened": 1204,
      "Ġmother": 1205,
      "Ġvow": 1206,
      "Ġenjoy": 1207,
      "ĠMad": 1208,
      "Ġdiv": 1209,
      "Ġnum": 1210,
      "ab": 1211,
      "Ġpierced": 1212,
      "ĠHaving": 1213,
      "unti": 1214,
      "ires": 1215,
      "ĠKurus": 1216,
      "Ġhus": 1217,
      "Ġgive": 1218,
      "fulg": 1219,
      "Ġcond": 1220,
      "ween": 1221,
      "Ġhundred": 1222,
      "Ġfood": 1223,
      "Ġdestruction": 1224,
      "pped": 1225,
      "ople": 1226,
      "Ġhusb": 1227,
      "ised": 1228,
      "Ġcity": 1229,
      "peri": 1230,
      "Ġsay": 1231,
      "Ġrighteous": 1232,
      "ĠSat": 1233,
      "ats": 1234,
      "Thus": 1235,
      "Ġbel": 1236,
      "icious": 1237,
      "Ġreturn": 1238,
      "Ġsc": 1239,
      "ĠEarth": 1240,
      "ty": 1241,
      "Ġtro": 1242,
      "Ġcannot": 1243,
      "Ġbirth": 1244,
      "ants": 1245,
      "Ġburn": 1246,
      "Ġexceed": 1247,
      "nal": 1248,
      "Ġduties": 1249,
      "Ġsacrifices": 1250,
      "Ġfruits": 1251,
      "ops": 1252,
      "Ġeffulg": 1253,
      "ither": 1254,
      "ampayana": 1255,
      "Ġbetween": 1256,
      "ĠThey": 1257,
      "Ġvirtuous": 1258,
      "Ġhear": 1259,
      "aishampayana": 1260,
      "Ġpur": 1261,
      "Ġcour": 1262,
      "Ġinst": 1263,
      "Ġworlds": 1264,
      "Ġhon": 1265,
      "wh": 1266,
      "de": 1267,
      "Ġhum": 1268,
      "Ġimp": 1269,
      "ined": 1270,
      "Ġclouds": 1271,
      "Ġcapable": 1272,
      "irous": 1273,
      "selves": 1274,
      "Ġdisc": 1275,
      "Ġwo": 1276,
      "Ġwhom": 1277,
      "iser": 1278,
      "ides": 1279,
      "Vaishampayana": 1280,
      "ick": 1281,
      "ial": 1282,
      "Ġtook": 1283,
      "Ġobser": 1284,
      "aid": 1285,
      "Ġaccount": 1286,
      "Ġstru": 1287,
      "Ġthin": 1288,
      "ering": 1289,
      "ĠKunti": 1290,
      "ude": 1291,
      "Ġheroic": 1292,
      "Ġtroops": 1293,
      "Ġknown": 1294,
      "Ġut": 1295,
      "Ġref": 1296,
      "ained": 1297,
      "nt": 1298,
      "Ġpeople": 1299,
      "Ġhand": 1300,
      "Ġfell": 1301,
      "Ġsubje": 1302,
      "Ġrush": 1303,
      "It": 1304,
      "Ġpri": 1305,
      "ĠNar": 1306,
      "lu": 1307,
      "Ġmake": 1308,
      "aken": 1309,
      "Ġsorrow": 1310,
      "Ġprotect": 1311,
      "Ġsky": 1312,
      "Ġfriends": 1313,
      "Ġfive": 1314,
      "Ġlarge": 1315,
      "Ġtrees": 1316,
      "ying": 1317,
      "Ġwise": 1318,
      "ĠRÄģkÅŁ": 1319,
      "aras": 1320,
      "ause": 1321,
      "ja": 1322,
      "This": 1323,
      "arrior": 1324,
      "Ġbecomes": 1325,
      "If": 1326,
      "Ġho": 1327,
      "esh": 1328,
      "Ġtell": 1329,
      "ouse": 1330,
      "Ġset": 1331,
      "Ġconf": 1332,
      "âĢĿ": 1333,
      "Ġsame": 1334,
      "cred": 1335,
      "Hearing": 1336,
      "ather": 1337,
      "Ġunderst": 1338,
      "men": 1339,
      "Ġdesirous": 1340,
      "full": 1341,
      "Ġstruck": 1342,
      "ĠVi": 1343,
      "Ġenemy": 1344,
      "day": 1345,
      "Ġalong": 1346,
      "cean": 1347,
      "hant": 1348,
      "Ġappro": 1349,
      "atter": 1350,
      "Ġten": 1351,
      "Ġwicked": 1352,
      "fully": 1353,
      "Ġback": 1354,
      "Ġshar": 1355,
      "rought": 1356,
      "Ġsound": 1357,
      "Ġsle": 1358,
      "Ġvict": 1359,
      "Ġprecept": 1360,
      "Ġuniverse": 1361,
      "Ġdeeds": 1362,
      "aus": 1363,
      "Ġsacred": 1364,
      "fied": 1365,
      "ese": 1366,
      "Ġregion": 1367,
      "Ġregions": 1368,
      "Ġbrothers": 1369,
      "iss": 1370,
      "Ġterrible": 1371,
      "Ġhusband": 1372,
      "rath": 1373,
      "Ġaccord": 1374,
      "Those": 1375,
      "Ġbre": 1376,
      "ĠThis": 1377,
      "Ġgu": 1378,
      "ccess": 1379,
      "Ġaffli": 1380,
      "crib": 1381,
      "ĠBhimasena": 1382,
      "Ġsoon": 1383,
      "sper": 1384,
      "Ġinv": 1385,
      "Ġsharp": 1386,
      "ĠRama": 1387,
      "ĠPri": 1388,
      "Ġlet": 1389,
      "gether": 1390,
      "Ġchief": 1391,
      "ĠIn": 1392,
      "Ġruler": 1393,
      "Ġpenances": 1394,
      "Ġtaking": 1395,
      "Ġdefe": 1396,
      "Seeing": 1397,
      "Do": 1398,
      "Ġcars": 1399,
      "Ġj": 1400,
      "Ġexceedingly": 1401,
      "Ġhel": 1402,
      "Ġbla": 1403,
      "adeva": 1404,
      "Ġthousands": 1405,
      "Ġcount": 1406,
      "Ġsn": 1407,
      "ĠCh": 1408,
      "Ġdone": 1409,
      "Ġyears": 1410,
      "ĠParth": 1411,
      "Ġdevot": 1412,
      "Ġmerit": 1413,
      "Ġthings": 1414,
      "Ġlot": 1415,
      "orned": 1416,
      "ue": 1417,
      "Ġpass": 1418,
      "ached": 1419,
      "Ġrest": 1420,
      "Ġfriend": 1421,
      "ac": 1422,
      "rong": 1423,
      "Ġcondu": 1424,
      "Ġwrath": 1425,
      "iz": 1426,
      "vere": 1427,
      "tions": 1428,
      "Ġelephant": 1429,
      "Ġstri": 1430,
      "Ġlead": 1431,
      "Ġtogether": 1432,
      "Ġprosper": 1433,
      "uk": 1434,
      "Ġgl": 1435,
      "ft": 1436,
      "ĠPanch": 1437,
      "Ġcommand": 1438,
      "Ġhelp": 1439,
      "Ġpleased": 1440,
      "Ġmost": 1441,
      "Ġfirst": 1442,
      "oud": 1443,
      "Ġthan": 1444,
      "ites": 1445,
      "ĠThat": 1446,
      "Ġsuperi": 1447,
      "Ġlooked": 1448,
      "Ġentered": 1449,
      "Ġce": 1450,
      "Ġlotus": 1451,
      "Ġspeak": 1452,
      "Ġmuch": 1453,
      "gr": 1454,
      "Ġjoy": 1455,
      "Ġold": 1456,
      "Ġgave": 1457,
      "ĠYo": 1458,
      "Ġgifted": 1459,
      "Ġspeed": 1460,
      "Ġgolden": 1461,
      "Ġkinds": 1462,
      "Ġstand": 1463,
      "tÄģ": 1464,
      "Ġrelig": 1465,
      "ceiv": 1466,
      "akra": 1467,
      "Ġgifts": 1468,
      "Ġlight": 1469,
      "Ġwood": 1470,
      "ality": 1471,
      "Ġdire": 1472,
      "uri": 1473,
      "Ġadorned": 1474,
      "eld": 1475,
      "Ġthought": 1476,
      "reme": 1477,
      "ary": 1478,
      "ĠPritha": 1479,
      "ĠMah": 1480,
      "char": 1481,
      "Ġadv": 1482,
      "ible": 1483,
      "Ġbless": 1484,
      "Ġev": 1485,
      "Ġmountains": 1486,
      "has": 1487,
      "Ġappeared": 1488,
      "ren": 1489,
      "nding": 1490,
      "Ġyourself": 1491,
      "Ġperformed": 1492,
      "Ġgiven": 1493,
      "Ġlady": 1494,
      "ode": 1495,
      "Ġwind": 1496,
      "lend": 1497,
      "owed": 1498,
      "Ġthemselves": 1499,
      "ghava": 1500,
      "vana": 1501,
      "ising": 1502,
      "Ġsat": 1503,
      "Ġsides": 1504,
      "oured": 1505,
      "Ġdays": 1506,
      "Ġground": 1507,
      "Ġanim": 1508,
      "They": 1509,
      "ĠPartha": 1510,
      "dd": 1511,
      "Ġequal": 1512,
      "Ġweapon": 1513,
      "Ġblood": 1514,
      "rated": 1515,
      "avana": 1516,
      "Ġnamed": 1517,
      "akÅŁ": 1518,
      "cceed": 1519,
      "ase": 1520,
      "ason": 1521,
      "ĠAg": 1522,
      "Ġocean": 1523,
      "Ġlearned": 1524,
      "Yudhishthira": 1525,
      "ition": 1526,
      "Ġsucceed": 1527,
      "Ġbrought": 1528,
      "Ġfam": 1529,
      "Ġsuccess": 1530,
      "Ġregard": 1531,
      "Ġfier": 1532,
      "Ġdescrib": 1533,
      "Ġwa": 1534,
      "oub": 1535,
      "ternal": 1536,
      "nam": 1537,
      "Ġhouse": 1538,
      "ĠJan": 1539,
      "tire": 1540,
      "Ġonce": 1541,
      "Ä«tÄģ": 1542,
      "Ġpresent": 1543,
      "Ġsuperior": 1544,
      "ctions": 1545,
      "ech": 1546,
      "sequ": 1547,
      "Ġkine": 1548,
      "under": 1549,
      "Ġcharioteer": 1550,
      "Ġwonder": 1551,
      "Ġaccompl": 1552,
      "Ġpreceptor": 1553,
      "hananjaya": 1554,
      "Ġ'": 1555,
      "aki": 1556,
      "Ġconduct": 1557,
      "ys": 1558,
      "Ġornam": 1559,
      "iers": 1560,
      "Ġwar": 1561,
      "Ġru": 1562,
      "Ġable": 1563,
      "Ġsurround": 1564,
      "Ġprosperity": 1565,
      "Ġwhole": 1566,
      "uring": 1567,
      "armed": 1568,
      "Ġcertain": 1569,
      "Ġlives": 1570,
      "Ġquick": 1571,
      "picious": 1572,
      "ten": 1573,
      "alas": 1574,
      "rigin": 1575,
      "Ġvictory": 1576,
      "ried": 1577,
      "isten": 1578,
      "Ġcontro": 1579,
      "born": 1580,
      "rib": 1581,
      "Ġsec": 1582,
      "Ġobjects": 1583,
      "ldiers": 1584,
      "ĠDhananjaya": 1585,
      "Ġcur": 1586,
      "Ġaccording": 1587,
      "Ġdevoted": 1588,
      "yal": 1589,
      "ature": 1590,
      "lled": 1591,
      "fter": 1592,
      "Ġorigin": 1593,
      "ism": 1594,
      "Ġdec": 1595,
      "Ġrespect": 1596,
      "With": 1597,
      "Ġsteed": 1598,
      "Ġorder": 1599,
      "Ġget": 1600,
      "nu": 1601,
      "ĠSÄ«tÄģ": 1602,
      "ĠSaty": 1603,
      "ĠRa": 1604,
      "ounter": 1605,
      "Ġswe": 1606,
      "Ġfre": 1607,
      "Ind": 1608,
      "ali": 1609,
      "Ġintelligent": 1610,
      "Ġpar": 1611,
      "Ġtoo": 1612,
      "Ġsix": 1613,
      "á¹": 1614,
      "Ġbring": 1615,
      "Ġasked": 1616,
      "Ġafflicted": 1617,
      "ual": 1618,
      "ched": 1619,
      "ĠRakshasas": 1620,
      "right": 1621,
      "Ġconvers": 1622,
      "Ġbeings": 1623,
      "Ġhuge": 1624,
      "Ġexc": 1625,
      "ps": 1626,
      "Ġmyself": 1627,
      "Ġrushed": 1628,
      "Ġdra": 1629,
      "ms": 1630,
      "ounded": 1631,
      "ran": 1632,
      "Ġgoing": 1633,
      "Ġroyal": 1634,
      "ĠWhat": 1635,
      "Ġcare": 1636,
      "By": 1637,
      "Ġdeprived": 1638,
      "ove": 1639,
      "Ġmid": 1640,
      "ĠSoul": 1641,
      "ches": 1642,
      "Ġassemb": 1643,
      "ĠVish": 1644,
      "Ġtoday": 1645,
      "Ġvan": 1646,
      "Arjuna": 1647,
      "Ġones": 1648,
      "Ġforce": 1649,
      "Ġworshi": 1650,
      "ret": 1651,
      "Ġban": 1652,
      "xt": 1653,
      "Ġthunder": 1654,
      "uras": 1655,
      "ĠGandharvas": 1656,
      "Ġentire": 1657,
      "Ġtwice": 1658,
      "Ġworship": 1659,
      "Ġrites": 1660,
      "Ġspeech": 1661,
      "Ġsteeds": 1662,
      "father": 1663,
      "ours": 1664,
      "Ġtaken": 1665,
      "On": 1666,
      "Ġimm": 1667,
      "tures": 1668,
      "ff": 1669,
      "Bhish": 1670,
      "uspicious": 1671,
      "Ġsti": 1672,
      "Bhishma": 1673,
      "Ġconsequ": 1674,
      "Ġexp": 1675,
      "Ġascetics": 1676,
      "bs": 1677,
      "Ġte": 1678,
      "ified": 1679,
      "Ġalone": 1680,
      "Ġhos": 1681,
      "Ġbea": 1682,
      "raup": 1683,
      "Ġsweet": 1684,
      "Ġgone": 1685,
      "Ġevil": 1686,
      "Ġemb": 1687,
      "Ġblessed": 1688,
      "Ġsurrounded": 1689,
      "mon": 1690,
      "nded": 1691,
      "ros": 1692,
      "Ġfierce": 1693,
      "Äģn": 1694,
      "Ġpoin": 1695,
      "All": 1696,
      "adi": 1697,
      "Ġforth": 1698,
      "Ġeverything": 1699,
      "Ġencounter": 1700,
      "Ġdoub": 1701,
      "Ġexist": 1702,
      "crip": 1703,
      "Ġmaking": 1704,
      "ĠSun": 1705,
      "Ġside": 1706,
      "Ġpure": 1707,
      "Ġconqu": 1708,
      "Ġdiffic": 1709,
      "Ġcourse": 1710,
      "udeva": 1711,
      "Ġstood": 1712,
      "Ġprince": 1713,
      "Ġauspicious": 1714,
      "ety": 1715,
      "ĠBrahman": 1716,
      "Beh": 1717,
      "ĠBut": 1718,
      "Ġsinful": 1719,
      "ĠLakÅŁ": 1720,
      "Ġbeholding": 1721,
      "ĠIf": 1722,
      "Ġcast": 1723,
      ".âĢĿ": 1724,
      "ika": 1725,
      "Ġqual": 1726,
      "Ġwithin": 1727,
      "Ġpract": 1728,
      "Ġconsidered": 1729,
      "Ġacquired": 1730,
      "Ġbelong": 1731,
      "raupadi": 1732,
      "ike": 1733,
      "Ġcal": 1734,
      "Ġsupp": 1735,
      "thy": 1736,
      "urnished": 1737,
      "Ġmoon": 1738,
      "Ġadore": 1739,
      "Ġopp": 1740,
      "ĠVa": 1741,
      "Ġhost": 1742,
      "ĠKshatriya": 1743,
      "leb": 1744,
      "Ġflowers": 1745,
      "Ġloud": 1746,
      "els": 1747,
      "Ġeffulgent": 1748,
      "ĠRÄģkÅŁasas": 1749,
      "Ġocc": 1750,
      "Ġel": 1751,
      "Ġvows": 1752,
      "Ġcrow": 1753,
      "Ġcause": 1754,
      "Ġbirds": 1755,
      "Ġthink": 1756,
      "Ġeternal": 1757,
      "Ġproceeded": 1758,
      "ĠRÄģghava": 1759,
      "mana": 1760,
      "anum": 1761,
      "Ġpious": 1762,
      "Ġren": 1763,
      "ĠAsh": 1764,
      "ĠLord": 1765,
      "sp": 1766,
      "una": 1767,
      "ute": 1768,
      "Ġhuman": 1769,
      "Ġunderstanding": 1770,
      "Ġbeauty": 1771,
      "rÄģ": 1772,
      "warrior": 1773,
      "ctive": 1774,
      "Ġobtained": 1775,
      ".'": 1776,
      "pan": 1777,
      "Ġcoun": 1778,
      "Ġwaters": 1779,
      "ĠWhen": 1780,
      "Ġobject": 1781,
      "Ġnumber": 1782,
      "Ġceleb": 1783,
      "oken": 1784,
      "Ġthough": 1785,
      "Ġhor": 1786,
      "Ġdestroyed": 1787,
      "fere": 1788,
      "yed": 1789,
      "Ġcaus": 1790,
      "Ġwomen": 1791,
      "ates": 1792,
      "Ġfurnished": 1793,
      "ries": 1794,
      "umna": 1795,
      "Ġpeace": 1796,
      "Ġsure": 1797,
      "Ġabode": 1798,
      "Ġintelligence": 1799,
      "Ġsing": 1800,
      "arted": 1801,
      "adra": 1802,
      "ĠVrish": 1803,
      "iva": 1804,
      "Ġslayer": 1805,
      "Ġcreated": 1806,
      "amb": 1807,
      "Ġincapable": 1808,
      "Ġkind": 1809,
      "Ġir": 1810,
      "ener": 1811,
      "ems": 1812,
      "Ġanimals": 1813,
      "Ġmiser": 1814,
      "Ġdisp": 1815,
      "Ġmin": 1816,
      "ĠKshatriyas": 1817,
      "Ġspoken": 1818,
      "Ġsacrificial": 1819,
      "Ġpart": 1820,
      "Sh": 1821,
      "Ġtree": 1822,
      "Ġbodies": 1823,
      "well": 1824,
      "Ġgar": 1825,
      "alya": 1826,
      "aster": 1827,
      "Ġyoung": 1828,
      "ĠPandava": 1829,
      "ĠAsuras": 1830,
      "Ġquickly": 1831,
      "Ġshot": 1832,
      "Ġformer": 1833,
      "For": 1834,
      "Ġcow": 1835,
      "Ġran": 1836,
      "ĠIndeed": 1837,
      "Ġcle": 1838,
      "ÅĽ": 1839,
      "cep": 1840,
      "Ġseven": 1841,
      "Ġhighest": 1842,
      "Ġtou": 1843,
      "tile": 1844,
      "act": 1845,
      "cious": 1846,
      "ging": 1847,
      "Ġdead": 1848,
      "Ġstrong": 1849,
      "outh": 1850,
      "Ġem": 1851,
      "Ġsoldiers": 1852,
      "Ã¤": 1853,
      "assed": 1854,
      "uta": 1855,
      "ĠTherefore": 1856,
      "cess": 1857,
      "ĠDhar": 1858,
      "ĠPra": 1859,
      "Ġblaz": 1860,
      "itra": 1861,
      "maÅĨa": 1862,
      "ĠSatyaki": 1863,
      ",-": 1864,
      "iting": 1865,
      "hand": 1866,
      "reds": 1867,
      "Ġfra": 1868,
      "Ġdark": 1869,
      "Ġchast": 1870,
      "Ġburning": 1871,
      "Ġduty": 1872,
      "Ġwives": 1873,
      "Ġsplend": 1874,
      "Ġconversant": 1875,
      "Ġqualities": 1876,
      "Ġsum": 1877,
      "Ġnext": 1878,
      "con": 1879,
      "à¥": 1880,
      "Ġtold": 1881,
      "anu": 1882,
      "Ġnone": 1883,
      "udra": 1884,
      "Ġduly": 1885,
      "anga": 1886,
      "Ġused": 1887,
      "Ġfollowing": 1888,
      "Ġput": 1889,
      "Ġdifficult": 1890,
      "One": 1891,
      "Ġhearing": 1892,
      "Ġthir": 1893,
      "cting": 1894,
      "ene": 1895,
      "ula": 1896,
      "Ġinn": 1897,
      "Ġcoming": 1898,
      "Ġpleasure": 1899,
      "Ġornaments": 1900,
      "ndfather": 1901,
      "ĠBy": 1902,
      "What": 1903,
      "ĠRÄģvana": 1904,
      "ĠLakÅŁmaÅĨa": 1905,
      "atas": 1906,
      "Ġfav": 1907,
      "Ġchildren": 1908,
      "Ġgift": 1909,
      "Ġfeet": 1910,
      "Ġremain": 1911,
      "Ġaffe": 1912,
      "Ġboon": 1913,
      "Ġeld": 1914,
      "Ġcomple": 1915,
      "tered": 1916,
      "Ġfollowed": 1917,
      "Ġturn": 1918,
      "Ġwhe": 1919,
      "Ġwhite": 1920,
      "Ġdear": 1921,
      "Ġserv": 1922,
      "par": 1923,
      "Ġop": 1924,
      "Ġscrip": 1925,
      "Ġconc": 1926,
      "iring": 1927,
      "Ġindeed": 1928,
      "Ġdrin": 1929,
      "rip": 1930,
      "ĠVasudeva": 1931,
      "Ġfirm": 1932,
      "ĠVid": 1933,
      "Ġhundreds": 1934,
      "hu": 1935,
      "ented": 1936,
      "cks": 1937,
      "Sanjaya": 1938,
      "Ġwonderful": 1939,
      "Ġmace": 1940,
      "irc": 1941,
      "Ġaust": 1942,
      "Ġasceticism": 1943,
      "ĠRaks": 1944,
      "Ġfind": 1945,
      "Ġdoing": 1946,
      "Ġrenoun": 1947,
      "Ġgrace": 1948,
      "Ġfreed": 1949,
      "Ġstill": 1950,
      "Ġcheer": 1951,
      "ĠSom": 1952,
      "ĠHanum": 1953,
      "Ġspeedily": 1954,
      "ming": 1955,
      "Ġhur": 1956,
      "Ġshow": 1957,
      "Ġtra": 1958,
      "Ġwhy": 1959,
      "Ġleft": 1960,
      "Ġsire": 1961,
      "Ġfighting": 1962,
      "ris": 1963,
      "Ġconsider": 1964,
      "Ġsubjects": 1965,
      "Ġsuff": 1966,
      "ond": 1967,
      "Ġmom": 1968,
      "Ġpain": 1969,
      "ĠLet": 1970,
      "Ġriver": 1971,
      "Ġlatter": 1972,
      "Ġdoubt": 1973,
      "Ġhair": 1974,
      "Ġfame": 1975,
      "Ġitself": 1976,
      "Ġprotected": 1977,
      "tle": 1978,
      "aste": 1979,
      "ceived": 1980,
      "panied": 1981,
      "Ġpath": 1982,
      "Ġdischar": 1983,
      "usion": 1984,
      "adyumna": 1985,
      "Ġdeep": 1986,
      "Ġsleep": 1987,
      "ĠDan": 1988,
      "Ġcontin": 1989,
      "Ġdepe": 1990,
      "ĠAng": 1991,
      "Ġmeet": 1992,
      "ĠVar": 1993,
      "Ġassum": 1994,
      "Ġprodu": 1995,
      "Ġnothing": 1996,
      "Ġsins": 1997,
      "ĠSanjaya": 1998,
      "Ġconst": 1999,
      "Ġworshipped": 2000,
      "osed": 2001,
      "Ġsent": 2002,
      "ĠDas": 2003,
      "ĠThus": 2004,
      "uni": 2005,
      "Ġarmed": 2006,
      "Ġanx": 2007,
      "Beholding": 2008,
      "Ġear": 2009,
      "Ġhermit": 2010,
      "atha": 2011,
      "Ġacquires": 2012,
      "Ġsen": 2013,
      "ĠOne": 2014,
      "ired": 2015,
      "inded": 2016,
      "Ġhorse": 2017,
      "Ġhill": 2018,
      "ament": 2019,
      "Ġelse": 2020,
      "cy": 2021,
      "Ġgot": 2022,
      "Ġbra": 2023,
      "Ġdeer": 2024,
      "Ġrage": 2025,
      "ĠFor": 2026,
      "Ġbath": 2027,
      "ĠHim": 2028,
      "Ġmoment": 2029,
      "Ġhold": 2030,
      "Ġwoods": 2031,
      "Ġsal": 2032,
      "Ġconsequence": 2033,
      "But": 2034,
      "Ġmar": 2035,
      "Ġworthy": 2036,
      "Ġdue": 2037,
      "Ġbehold": 2038,
      "Ġdiffere": 2039,
      "Ġyet": 2040,
      "akas": 2041,
      "usha": 2042,
      "Ġfearful": 2043,
      "Ä«va": 2044,
      "acri": 2045,
      "ges": 2046,
      "Ġint": 2047,
      "Ġroot": 2048,
      "Ġdevo": 2049,
      "Ġappear": 2050,
      "Ġinstru": 2051,
      "Ġver": 2052,
      "asts": 2053,
      "Ġmidst": 2054,
      "iety": 2055,
      "Ġmust": 2056,
      "Ġwork": 2057,
      "oked": 2058,
      "Ġforms": 2059,
      "by": 2060,
      "gs": 2061,
      "Ġbene": 2062,
      "ords": 2063,
      "Ġscriptures": 2064,
      "bile": 2065,
      "Ġsight": 2066,
      "ĠSup": 2067,
      "Ġriches": 2068,
      "Ġrefu": 2069,
      "ĠPanchalas": 2070,
      "grÄ«va": 2071,
      "Ġvanqu": 2072,
      "ĠAll": 2073,
      "ka": 2074,
      "ini": 2075,
      "Ġpuri": 2076,
      "Ġuse": 2077,
      "Ġmine": 2078,
      "atever": 2079,
      "Ġwis": 2080,
      "Ġdeities": 2081,
      "Ġfought": 2082,
      "Ġaccompanied": 2083,
      "Let": 2084,
      "Ġdro": 2085,
      "Ġdwell": 2086,
      "aves": 2087,
      "Ġface": 2088,
      "Ġsatis": 2089,
      "Ġgiving": 2090,
      "gard": 2091,
      "Ġspir": 2092,
      "Ġfree": 2093,
      "Ġbear": 2094,
      "ĠRavana": 2095,
      "Ġvo": 2096,
      "ĠYoga": 2097,
      "Ġpassed": 2098,
      "Ġdeser": 2099,
      "Ġfoot": 2100,
      "Ġheads": 2101,
      "Ġuttered": 2102,
      "After": 2103,
      "ĠKa": 2104,
      "Ġang": 2105,
      "Ġexer": 2106,
      "Ġ*": 2107,
      "Ġnature": 2108,
      "Ġstud": 2109,
      "Ġlim": 2110,
      "Ġdelighted": 2111,
      "Ġlast": 2112,
      "plied": 2113,
      "Ġpracti": 2114,
      "Ġsplendour": 2115,
      "Ġwisdom": 2116,
      "oon": 2117,
      "aura": 2118,
      "ĠDeath": 2119,
      "Ġpurp": 2120,
      "ining": 2121,
      "ĠSum": 2122,
      "ĠShakra": 2123,
      "Ġsnakes": 2124,
      "Ġlost": 2125,
      "ĠDraupadi": 2126,
      "getic": 2127,
      "Ġtrue": 2128,
      "eep": 2129,
      "ided": 2130,
      "ĠThereupon": 2131,
      "Ġlion": 2132,
      "ĠBharatas": 2133,
      "Ġcloth": 2134,
      "Ġpresence": 2135,
      "Ġwoman": 2136,
      "Ġholy": 2137,
      "Ġwield": 2138,
      "Ġreason": 2139,
      "ĠVir": 2140,
      "minded": 2141,
      "ĠSugrÄ«va": 2142,
      "Ġpie": 2143,
      "fit": 2144,
      "Ġsil": 2145,
      "ĠPar": 2146,
      "Ġeffulgence": 2147,
      "ets": 2148,
      "oved": 2149,
      "erable": 2150,
      "Ġshower": 2151,
      "ently": 2152,
      "ĠYama": 2153,
      "ĠShalya": 2154,
      "Ġdestroyer": 2155,
      "Ġsorts": 2156,
      "Ġhard": 2157,
      "Ġhermitage": 2158,
      "Ġrefuge": 2159,
      "yasa": 2160,
      "Ġsake": 2161,
      "ĠMa": 2162,
      "Ġes": 2163,
      "ists": 2164,
      "ching": 2165,
      "ĠLaks": 2166,
      "Ġenergetic": 2167,
      "Ġdri": 2168,
      "chie": 2169,
      "Ġlived": 2170,
      "Ġyours": 2171,
      "pet": 2172,
      "Ġseek": 2173,
      "Ġutter": 2174,
      "pit": 2175,
      "wing": 2176,
      "Ġrays": 2177,
      "ĠAgni": 2178,
      "ixed": 2179,
      "Ġgrat": 2180,
      "raged": 2181,
      "Ġatte": 2182,
      "su": 2183,
      "Ġjo": 2184,
      "lle": 2185,
      "idd": 2186,
      "Ġapproach": 2187,
      "Ġfamily": 2188,
      "rings": 2189,
      "Ġaw": 2190,
      "Ġgrands": 2191,
      "gn": 2192,
      "Ġsingle": 2193,
      "Ġblazing": 2194,
      "rying": 2195,
      "ĠDanavas": 2196,
      "with": 2197,
      "Ġcr": 2198,
      "Ġma": 2199,
      "Ġlaid": 2200,
      "Ġslaying": 2201,
      "Ġaccomplish": 2202,
      "Ġhun": 2203,
      "ision": 2204,
      "enty": 2205,
      "ames": 2206,
      "ital": 2207,
      "ivers": 2208,
      "Ġaffection": 2209,
      "Ġachie": 2210,
      "Ġcap": 2211,
      "ately": 2212,
      "ahadeva": 2213,
      "Ġgarl": 2214,
      "Ġprom": 2215,
      "ripa": 2216,
      "ught": 2217,
      "Ġmaster": 2218,
      "Ġseated": 2219,
      "Ġhostile": 2220,
      "Ġfavour": 2221,
      "Ġred": 2222,
      "ĠNarayana": 2223,
      "Ġadored": 2224,
      "Ġreplied": 2225,
      "akula": 2226,
      "ĠKesh": 2227,
      "Ġcompany": 2228,
      "Ġresembled": 2229,
      "Ġattained": 2230,
      "ĠGanga": 2231,
      "Ġslaughter": 2232,
      "Ġlove": 2233,
      "Ġsim": 2234,
      "ises": 2235,
      "Ġweak": 2236,
      "after": 2237,
      "Ġdefeated": 2238,
      "int": 2239,
      "Ġmouth": 2240,
      "reeable": 2241,
      "Ġplaced": 2242,
      "Al": 2243,
      "Ġmor": 2244,
      "Ġext": 2245,
      "Ġbows": 2246,
      "Äĥ": 2247,
      "cip": 2248,
      "ĠYu": 2249,
      "Ġknowing": 2250,
      "Ġassail": 2251,
      "ribut": 2252,
      "erous": 2253,
      "Ġsage": 2254,
      "Ġconsum": 2255,
      "Ġhar": 2256,
      "Ġaction": 2257,
      "Ġmisery": 2258,
      "atta": 2259,
      "iew": 2260,
      "Ġamongst": 2261,
      "tro": 2262,
      "Ġju": 2263,
      "Ġsea": 2264,
      "Ġstate": 2265,
      "ĠHow": 2266,
      "Ġfool": 2267,
      "Ġcontrol": 2268,
      "ĠKaura": 2269,
      "Ġcol": 2270,
      "Ġsubject": 2271,
      "At": 2272,
      "rans": 2273,
      "These": 2274,
      "Ġask": 2275,
      "ĠThose": 2276,
      "Ġwelf": 2277,
      "Ġwelfare": 2278,
      "min": 2279,
      "orance": 2280,
      "bol": 2281,
      "rup": 2282,
      "Ġfruit": 2283,
      "Being": 2284,
      "sw": 2285,
      "Ġround": 2286,
      "aratha": 2287,
      "Ġrepe": 2288,
      "Ġreligion": 2289,
      "Ġwounded": 2290,
      "ĠOn": 2291,
      "sooth": 2292,
      "ater": 2293,
      "Ġlit": 2294,
      "hab": 2295,
      "Ġprotection": 2296,
      "ĠWe": 2297,
      "Ġrespective": 2298,
      "Ġshowers": 2299,
      "Ġforces": 2300,
      "Ġoffer": 2301,
      "Ġpala": 2302,
      "Ġrighteousness": 2303,
      "ĠNarada": 2304,
      "dden": 2305,
      "ken": 2306,
      "ives": 2307,
      "Ġenter": 2308,
      "Ġdirections": 2309,
      "ape": 2310,
      "ward": 2311,
      "Ġcharming": 2312,
      "wise": 2313,
      "Ġtrans": 2314,
      "ĠSuta": 2315,
      "Ġmean": 2316,
      "ĠHis": 2317,
      "Ġchastiser": 2318,
      "Ġmass": 2319,
      "Ġfallen": 2320,
      "ich": 2321,
      "Ġmil": 2322,
      "Ġlying": 2323,
      "Ġlisten": 2324,
      "Ġrain": 2325,
      "ission": 2326,
      "Ġcrush": 2327,
      "Ġthing": 2328,
      "Ġsit": 2329,
      "Ġbearing": 2330,
      "cken": 2331,
      "Ġkilling": 2332,
      "ĠKeshava": 2333,
      "und": 2334,
      "ĠVibh": 2335,
      "Ġview": 2336,
      "Ġsinless": 2337,
      "ressing": 2338,
      "Indra": 2339,
      "Ġgener": 2340,
      "tim": 2341,
      "ĠKripa": 2342,
      "Ġenraged": 2343,
      "Ġsol": 2344,
      "anyu": 2345,
      "Ġreligious": 2346,
      "Ġje": 2347,
      "Ġdischarged": 2348,
      "Ġserp": 2349,
      "Ġobserv": 2350,
      "Ġsmil": 2351,
      "Ġair": 2352,
      "Ġnear": 2353,
      "ĠAn": 2354,
      "Ġaccept": 2355,
      "ĠVishnu": 2356,
      "Ġdecked": 2357,
      "Ġwel": 2358,
      "cible": 2359,
      "á¹£": 2360,
      "though": 2361,
      "eness": 2362,
      "Ġgrant": 2363,
      "Ġhearts": 2364,
      "Ġconfer": 2365,
      "Ġdescribed": 2366,
      "ĠAshv": 2367,
      "Ġforg": 2368,
      "ĠBeing": 2369,
      "Ġrivers": 2370,
      "like": 2371,
      "Ġoccas": 2372,
      "Ġrid": 2373,
      "Ġcommit": 2374,
      "Ġgems": 2375,
      "aming": 2376,
      "Ġmet": 2377,
      "Ġdifferent": 2378,
      "ĠLaksmana": 2379,
      "Ġins": 2380,
      "contro": 2381,
      "Ġgrow": 2382,
      "Ġunc": 2383,
      "Therefore": 2384,
      "ounding": 2385,
      "Ġnumerous": 2386,
      "Ġkeep": 2387,
      "Ġdesires": 2388,
      "We": 2389,
      "ĠDa": 2390,
      "Ġdispl": 2391,
      "Ġeye": 2392,
      "vereign": 2393,
      "ita": 2394,
      "itation": 2395,
      "ĠPur": 2396,
      "Ġoffered": 2397,
      "Ġtears": 2398,
      "ĠWith": 2399,
      "Ġauster": 2400,
      "hi": 2401,
      "Ġeither": 2402,
      "Ġansw": 2403,
      "ĠSupreme": 2404,
      "Dh": 2405,
      "Ġfair": 2406,
      "vata": 2407,
      "Ġarrived": 2408,
      "ture": 2409,
      "Ġrelat": 2410,
      "ĠDharma": 2411,
      "dess": 2412,
      "ests": 2413,
      "Ġcomb": 2414,
      "Ġwret": 2415,
      "Ġmaid": 2416,
      "alf": 2417,
      "Ġcomes": 2418,
      "Ġangry": 2419,
      "Ġdan": 2420,
      "sol": 2421,
      "Ġnoble": 2422,
      "whel": 2423,
      "Ġwarrior": 2424,
      "ĠGod": 2425,
      "Ġtruly": 2426,
      "Ġfeel": 2427,
      "ĠRakshasa": 2428,
      "Ġfly": 2429,
      "Ġspot": 2430,
      "Ġabove": 2431,
      "vÄģ": 2432,
      "incible": 2433,
      "Ġmain": 2434,
      "ĠSam": 2435,
      "teen": 2436,
      "Ġrepeated": 2437,
      "ror": 2438,
      "ta": 2439,
      "Ġbed": 2440,
      "ased": 2441,
      "Ġeight": 2442,
      "ĠAl": 2443,
      "ila": 2444,
      "Ġbeheld": 2445,
      "Ġordin": 2446,
      "rigu": 2447,
      "bolt": 2448,
      "rist": 2449,
      "Ġcros": 2450,
      "ĠGra": 2451,
      "ĠVidura": 2452,
      "ner": 2453,
      "ready": 2454,
      "Ġlittle": 2455,
      "asana": 2456,
      "Ġfoe": 2457,
      "Ġfu": 2458,
      "adha": 2459,
      "ĠBri": 2460,
      "head": 2461,
      "Ġhonour": 2462,
      "nce": 2463,
      "Ġcirc": 2464,
      "Ġeat": 2465,
      "owing": 2466,
      "petu": 2467,
      "ĠThese": 2468,
      "Ġinvincible": 2469,
      "Ġcaused": 2470,
      "orious": 2471,
      "Ġdam": 2472,
      "Ġlust": 2473,
      "Ġdeity": 2474,
      "vel": 2475,
      "Ġendowed": 2476,
      "Ġdivine": 2477,
      "Ġpride": 2478,
      "ister": 2479,
      "Ġsovereign": 2480,
      "Ġmerits": 2481,
      "bly": 2482,
      "Ġsci": 2483,
      "Ġpun": 2484,
      "Ġund": 2485,
      "ĠLank": 2486,
      "risht": 2487,
      "Ġacquiring": 2488,
      "Ġign": 2489,
      "ĠAd": 2490,
      "Ġresc": 2491,
      "Ġincre": 2492,
      "Like": 2493,
      "Ġfled": 2494,
      "Ġsudden": 2495,
      "ilar": 2496,
      "indh": 2497,
      "fect": 2498,
      "Krishna": 2499,
      "Ġtig": 2500,
      "Ġbes": 2501,
      "ime": 2502,
      "ĠDush": 2503,
      "Ġstra": 2504,
      "Ġaff": 2505,
      "Bh": 2506,
      "Ġlad": 2507,
      "Ġreceived": 2508,
      "rupada": 2509,
      "Ġausterities": 2510,
      "Ġcru": 2511,
      "rid": 2512,
      "Ġbreast": 2513,
      "Ġsurely": 2514,
      "How": 2515,
      "ility": 2516,
      "Ġinflu": 2517,
      "jas": 2518,
      "Ġur": 2519,
      "Ġgrandfather": 2520,
      "antras": 2521,
      "ĠTell": 2522,
      "aff": 2523,
      "Ġlooking": 2524,
      "Ġdeparted": 2525,
      "orted": 2526,
      "Ġsnake": 2527,
      "Ġdescribe": 2528,
      "akuni": 2529,
      "Ġseem": 2530,
      "Ġroars": 2531,
      "Ġsword": 2532,
      "ĠDev": 2533,
      "Ġdamsel": 2534,
      "ká¹£": 2535,
      "Ġaround": 2536,
      "Ġalready": 2537,
      "Who": 2538,
      "Ġcharact": 2539,
      "Ġpalace": 2540,
      "Some": 2541,
      "ĠAt": 2542,
      "Ġsince": 2543,
      "beration": 2544,
      "ĠMahadeva": 2545,
      "Ġaccomplished": 2546,
      "gri": 2547,
      "ured": 2548,
      "Ġinj": 2549,
      "ĠSahadeva": 2550,
      "ĠKnow": 2551,
      "ember": 2552,
      "Ġabst": 2553,
      "Ġrob": 2554,
      "Ġadvan": 2555,
      "hy": 2556,
      "ator": 2557,
      "ested": 2558,
      "Ġcarried": 2559,
      "ĠGo": 2560,
      "Ġprinces": 2561,
      "his": 2562,
      "Ġready": 2563,
      "Ġshorn": 2564,
      "appe": 2565,
      "Ġgoddess": 2566,
      "Ġoverwhel": 2567,
      "off": 2568,
      "Ġreturned": 2569,
      "Ġcelebrated": 2570,
      "Ġsalut": 2571,
      "ĠVirata": 2572,
      "adatta": 2573,
      "andon": 2574,
      "âĢĶ": 2575,
      "Ġcertainly": 2576,
      "Ġcharacter": 2577,
      "odara": 2578,
      "Ġfalling": 2579,
      "mer": 2580,
      "Ġgir": 2581,
      "ĠGandiva": 2582,
      "val": 2583,
      "Ġyouth": 2584,
      "ĠMar": 2585,
      "Ġlearning": 2586,
      "Ġmed": 2587,
      "ĠBhrigu": 2588,
      "astya": 2589,
      "Ġrelatives": 2590,
      "Ġfat": 2591,
      "ific": 2592,
      "Ġconch": 2593,
      "Ġconfli": 2594,
      "bhim": 2595,
      "Ġdistress": 2596,
      "ĠRagh": 2597,
      "ivid": 2598,
      "Ġagit": 2599,
      "á¹ĩ": 2600,
      "Ġpurpose": 2601,
      "Ġage": 2602,
      "ari": 2603,
      "ĠDest": 2604,
      "Ġagreeable": 2605,
      "Ġtruthful": 2606,
      "Ġperforming": 2607,
      "Ġsounds": 2608,
      "Ġlimbs": 2609,
      "rang": 2610,
      "vo": 2611,
      "Ġbegot": 2612,
      "Ġduring": 2613,
      "ĠNakula": 2614,
      "Ġtimes": 2615,
      "Ġnamely": 2616,
      "Ġcalam": 2617,
      "ĠHanumÄģn": 2618,
      "Be": 2619,
      "come": 2620,
      "Ġche": 2621,
      "Ġmonth": 2622,
      "isting": 2623,
      "isters": 2624,
      "Ġheaded": 2625,
      "Ġconflict": 2626,
      "bhimanyu": 2627,
      "RÄģ": 2628,
      "Ġwhatever": 2629,
      "law": 2630,
      "hood": 2631,
      "Ġhurled": 2632,
      "Ġdevotion": 2633,
      "ls": 2634,
      "Ġkins": 2635,
      "ayas": 2636,
      "ĠAr": 2637,
      "uts": 2638,
      "hara": 2639,
      "Ġcreature": 2640,
      "Ġflesh": 2641,
      "Ġcountry": 2642,
      "iding": 2643,
      "Ġsho": 2644,
      "ĠKrit": 2645,
      "Ġthinking": 2646,
      "Ġyounger": 2647,
      "mission": 2648,
      "Ġinhab": 2649,
      "Ġste": 2650,
      "umerable": 2651,
      "Ġrestra": 2652,
      "Ġinter": 2653,
      "Ġlake": 2654,
      "Ġbull": 2655,
      "Ġyore": 2656,
      "Ġstay": 2657,
      "Ġassembly": 2658,
      "Ġbroken": 2659,
      "ikhand": 2660,
      "Ġembra": 2661,
      "Ġspirit": 2662,
      "Ġfault": 2663,
      "Ġversed": 2664,
      "Ġmorality": 2665,
      "ient": 2666,
      "Ġthrow": 2667,
      "ention": 2668,
      "Ġbew": 2669,
      "ishment": 2670,
      "Ġtwenty": 2671,
      "Ġgarlands": 2672,
      "Ġseason": 2673,
      "ruth": 2674,
      "Ġstandard": 2675,
      "Ġcruel": 2676,
      "be": 2677,
      "hold": 2678,
      "rate": 2679,
      "Ġmarri": 2680,
      "Ġstation": 2681,
      "regard": 2682,
      "Ġattached": 2683,
      "Indeed": 2684,
      "Ġjoined": 2685,
      "alted": 2686,
      "sted": 2687,
      "ĠWind": 2688,
      "ĠMadhu": 2689,
      "Ġstricken": 2690,
      "ÈĻ": 2691,
      "rew": 2692,
      "Ġseat": 2693,
      "bhadra": 2694,
      "Ġbelonging": 2695,
      "Ġoverwhelmed": 2696,
      "ison": 2697,
      "Ġpu": 2698,
      "iving": 2699,
      "vaÅĨa": 2700,
      "Ġabandon": 2701,
      "Ġanything": 2702,
      "Ġreco": 2703,
      "ĠVaruna": 2704,
      "ributes": 2705,
      "acked": 2706,
      "rik": 2707,
      "Ġseiz": 2708,
      "ĠTime": 2709,
      "ĠDhrisht": 2710,
      "Ġdarkness": 2711,
      "rat": 2712,
      "Ġmod": 2713,
      "Ġgain": 2714,
      "Ġpoints": 2715,
      "Ġbrave": 2716,
      "ray": 2717,
      "ular": 2718,
      "Ġleaving": 2719,
      "Ġdefeat": 2720,
      "acrifice": 2721,
      "eyed": 2722,
      "Ġwings": 2723,
      "ndered": 2724,
      "ĠRÃ¤": 2725,
      "ship": 2726,
      "iled": 2727,
      "vaja": 2728,
      "Ġuna": 2729,
      "Ġexalted": 2730,
      "Ġdisappe": 2731,
      "Ġactions": 2732,
      "attered": 2733,
      "Ġfollowers": 2734,
      "Ġoccasion": 2735,
      "Ġtreat": 2736,
      "Ġtem": 2737,
      "Ġfortu": 2738,
      "ĠVÄģ": 2739,
      "ĠYaksh": 2740,
      "ĠRaksasas": 2741,
      "Dhritarashtra": 2742,
      "Ġmakes": 2743,
      "Ġattach": 2744,
      "Ġbanks": 2745,
      "Ġimmo": 2746,
      "Ġscience": 2747,
      "eth": 2748,
      "idence": 2749,
      "ĠHearing": 2750,
      "ityas": 2751,
      "Ġrose": 2752,
      "Ġbowman": 2753,
      "Ġclad": 2754,
      "Ġdar": 2755,
      "ĠSeeing": 2756,
      "Ġsages": 2757,
      "ĠVyasa": 2758,
      "Ġvirtues": 2759,
      "Ġformerly": 2760,
      "Ġinnumerable": 2761,
      "times": 2762,
      "-\"": 2763,
      "ikey": 2764,
      "alg": 2765,
      "ĠDrupada": 2766,
      "ĠBharad": 2767,
      "Ġwishes": 2768,
      "inion": 2769,
      "enance": 2770,
      "Ġsucceeds": 2771,
      "ĠJanaka": 2772,
      "Ġcurse": 2773,
      "Ġvanquished": 2774,
      "Ġvoice": 2775,
      "Your": 2776,
      "sing": 2777,
      "iny": 2778,
      "asura": 2779,
      "Ġministers": 2780,
      "pati": 2781,
      "ĠÅ": 2782,
      "Ġlament": 2783,
      "ĠAps": 2784,
      "ĠAbhimanyu": 2785,
      "Thereat": 2786,
      "Ġhonoured": 2787,
      "izens": 2788,
      "uka": 2789,
      "Ġtouch": 2790,
      "Even": 2791,
      "ĠSav": 2792,
      "ĠVaish": 2793,
      "apa": 2794,
      "Ġprof": 2795,
      "Ġassembled": 2796,
      "ĠDasaratha": 2797,
      "Ġmilk": 2798,
      "Ġrepeatedly": 2799,
      "bha": 2800,
      "isted": 2801,
      "Ġpor": 2802,
      "Ġpermission": 2803,
      "Ġheld": 2804,
      "ĠKum": 2805,
      "Ġdeter": 2806,
      "ical": 2807,
      "ĠTir": 2808,
      "Ġdiscip": 2809,
      "lution": 2810,
      "ĠPanchala": 2811,
      "Ġanxiety": 2812,
      "Ġattributes": 2813,
      "Ġglad": 2814,
      "ĠKaikey": 2815,
      "Ġdi": 2816,
      "measura": 2817,
      "ĠVaide": 2818,
      "ded": 2819,
      "Ġcere": 2820,
      "Ġyield": 2821,
      "ĠKar": 2822,
      "Ġvast": 2823,
      "Ġstanding": 2824,
      "ourse": 2825,
      "Ġleave": 2826,
      "ĠWhy": 2827,
      "Ġsense": 2828,
      "ĠKash": 2829,
      "Ġcompass": 2830,
      "Ġapproached": 2831,
      "Ġceremon": 2832,
      "Ġsepar": 2833,
      "Ġword": 2834,
      "ili": 2835,
      "ĠRÄģká¹£": 2836,
      "Ġnecess": 2837,
      "Ġfeat": 2838,
      "Ġterror": 2839,
      "ĠRÄģkÅŁasa": 2840,
      "Bhim": 2841,
      "inning": 2842,
      "ift": 2843,
      "Ġobl": 2844,
      "orning": 2845,
      "where": 2846,
      "Ġdrink": 2847,
      "ĠDushasana": 2848,
      "go": 2849,
      "uck": 2850,
      "Ġfish": 2851,
      "Ġda": 2852,
      "Ġgoes": 2853,
      "ĠRaghu": 2854,
      "ikhandin": 2855,
      "Ġest": 2856,
      "Ġsup": 2857,
      "ĠPit": 2858,
      "ardana": 2859,
      "bala": 2860,
      "ksh": 2861,
      "var": 2862,
      "Ġbr": 2863,
      "lling": 2864,
      "Ġpal": 2865,
      "Ġimmeasura": 2866,
      "Ġkinsmen": 2867,
      "ior": 2868,
      "ceive": 2869,
      "Ġvis": 2870,
      "Ġalive": 2871,
      "uda": 2872,
      "acha": 2873,
      "Ġjew": 2874,
      "Duryodhana": 2875,
      "oc": 2876,
      "oming": 2877,
      "ĠSome": 2878,
      "ĠKu": 2879,
      "Ġdestroying": 2880,
      "Ġobtains": 2881,
      "Ġrepair": 2882,
      "Ġrefle": 2883,
      "Ġassailed": 2884,
      "His": 2885,
      "Ġfast": 2886,
      "Ġdart": 2887,
      "Ġdiverse": 2888,
      "erest": 2889,
      "Ġbecause": 2890,
      "Ġknows": 2891,
      "Ġoffsp": 2892,
      "mble": 2893,
      "ĠKal": 2894,
      "Ġveh": 2895,
      "solution": 2896,
      "ĠBhag": 2897,
      "osition": 2898,
      "Ġresp": 2899,
      "ĠSuch": 2900,
      "Ġincl": 2901,
      "Ġprincip": 2902,
      "ĠUt": 2903,
      "sued": 2904,
      "Ġfright": 2905,
      "iti": 2906,
      "ĠRudra": 2907,
      "Ġherself": 2908,
      "ĠLi": 2909,
      "Ġleading": 2910,
      "Ġcomplete": 2911,
      "Ġdepend": 2912,
      "Ġladies": 2913,
      "Ġfixed": 2914,
      "Ġneither": 2915,
      "ĠShant": 2916,
      "Ġhappy": 2917,
      "Ġsatisf": 2918,
      "elf": 2919,
      "Ġarmour": 2920,
      "gated": 2921,
      "Ġpour": 2922,
      "ishing": 2923,
      "nown": 2924,
      "Ġador": 2925,
      "Ġsecond": 2926,
      "Ġgraceful": 2927,
      "griva": 2928,
      "Ġmark": 2929,
      "Ġinju": 2930,
      "ayan": 2931,
      "Ġsearch": 2932,
      "Ġaccep": 2933,
      "Ġcolle": 2934,
      "Ġroar": 2935,
      "medi": 2936,
      "Ġwhether": 2937,
      "oura": 2938,
      "tible": 2939,
      "ĠSrin": 2940,
      "Ġcombat": 2941,
      "kin": 2942,
      "enced": 2943,
      "Ġdisregard": 2944,
      "Ġshaft": 2945,
      "ciousness": 2946,
      "Ġoffspring": 2947,
      "Ġdru": 2948,
      "ĠAfter": 2949,
      "Ġspread": 2950,
      "Ġexcited": 2951,
      "Ġwant": 2952,
      "Ġshort": 2953,
      "taining": 2954,
      "Ġremember": 2955,
      "Ġexistence": 2956,
      "Ġgratified": 2957,
      "Ġagitated": 2958,
      "ines": 2959,
      "ept": 2960,
      "Ġhope": 2961,
      "ĠSoma": 2962,
      "ĠShantanu": 2963,
      "from": 2964,
      "Ġsave": 2965,
      "Ġfal": 2966,
      "Ġmatter": 2967,
      "Ġpoured": 2968,
      "Ġwearing": 2969,
      "ĠMan": 2970,
      "Ġplaces": 2971,
      "Ġpoison": 2972,
      "Ġinfluence": 2973,
      "ale": 2974,
      "ee": 2975,
      "Ġtor": 2976,
      "Ġdice": 2977,
      "Ġrequ": 2978,
      "Ġswift": 2979,
      "Ġdarts": 2980,
      "Ġlow": 2981,
      "inda": 2982,
      "haspati": 2983,
      "Ġgetting": 2984,
      "Ġconquer": 2985,
      "Ġeldest": 2986,
      "Ġcolour": 2987,
      "Ġsupreme": 2988,
      "atch": 2989,
      "Ġmis": 2990,
      "antly": 2991,
      "ĠAsura": 2992,
      "Ġroots": 2993,
      "Ġpieces": 2994,
      "Ġjust": 2995,
      "Ġstationed": 2996,
      "aj": 2997,
      "ously": 2998,
      "Ġsever": 2999,
      "Ġalthough": 3000,
      "seless": 3001,
      "ĠJay": 3002,
      "abl": 3003,
      "ĠLiberation": 3004,
      "Ġdust": 3005,
      "Ġwit": 3006,
      "Ġmeas": 3007,
      "Ġgover": 3008,
      "Ġunited": 3009,
      "Ġbowmen": 3010,
      "Ġmoved": 3011,
      "Ġflaming": 3012,
      "Ġrun": 3013,
      "Ġpurified": 3014,
      "mn": 3015,
      "Ġtakes": 3016,
      "maá¹ĩ": 3017,
      "ĠMy": 3018,
      "Ġgrieve": 3019,
      "Ġparts": 3020,
      "Ġservants": 3021,
      "To": 3022,
      "Ġfle": 3023,
      "Ġcit": 3024,
      "Ġyear": 3025,
      "Ġswords": 3026,
      "Ġslew": 3027,
      "Ġworshipful": 3028,
      "Ġstudy": 3029,
      "ĠPitris": 3030,
      "Ġrevere": 3031,
      "ainted": 3032,
      "ficial": 3033,
      "Ġspeaking": 3034,
      "Ġsuffer": 3035,
      "ints": 3036,
      "Ġwand": 3037,
      "Ġbad": 3038,
      "Ġmorning": 3039,
      "Ġdesp": 3040,
      "Ġcove": 3041,
      "Ġboons": 3042,
      "Ġpenet": 3043,
      "Ġlotuses": 3044,
      "Ġconquered": 3045,
      "Ġsign": 3046,
      "Ġgiver": 3047,
      "Ġresol": 3048,
      "Ġhist": 3049,
      "Ġvul": 3050,
      "Ġprev": 3051,
      "Ġimmort": 3052,
      "rÄģh": 3053,
      "ifest": 3054,
      "Ġcover": 3055,
      "ĠDhrishtadyumna": 3056,
      "ĠBharadvaja": 3057,
      "ones": 3058,
      "Ġcries": 3059,
      "Ġlib": 3060,
      "Ġentering": 3061,
      "Ġbecoming": 3062,
      "Ġcountenance": 3063,
      "adratha": 3064,
      "Ġval": 3065,
      "Ġvital": 3066,
      "ĠMoon": 3067,
      "Ġunf": 3068,
      "Ġforests": 3069,
      "Ġbreath": 3070,
      "Ġpractice": 3071,
      "Ġsuddenly": 3072,
      "wor": 3073,
      "Ġtry": 3074,
      "Ġinten": 3075,
      "sell": 3076,
      "avar": 3077,
      "ulf": 3078,
      "icated": 3079,
      "ĠSubhadra": 3080,
      "Ġburnt": 3081,
      "Ġesc": 3082,
      "bed": 3083,
      "ery": 3084,
      "ĠBrÄģh": 3085,
      "Ġcomfor": 3086,
      "Ġquart": 3087,
      "Ġorders": 3088,
      "Ġgrass": 3089,
      "Ġblack": 3090,
      "Re": 3091,
      "Ġstory": 3092,
      "ĠWho": 3093,
      "Ġdistressed": 3094,
      "rikodara": 3095,
      "vara": 3096,
      "Ġfound": 3097,
      "Ġredu": 3098,
      "ĠVrishni": 3099,
      "tive": 3100,
      "ĠShakuni": 3101,
      "Ġmove": 3102,
      "Ġaddressing": 3103,
      "Ġbutter": 3104,
      "Ġofferings": 3105,
      "Ġfalse": 3106,
      "From": 3107,
      "asons": 3108,
      "Ġpol": 3109,
      "male": 3110,
      "Ġbroad": 3111,
      "ĠVasava": 3112,
      "Ġcounsell": 3113,
      "ĠLankÄģ": 3114,
      "Ġcitizens": 3115,
      ");": 3116,
      "rating": 3117,
      "Ġhalf": 3118,
      "Ġfin": 3119,
      "anda": 3120,
      "ults": 3121,
      "Ġdrawn": 3122,
      "Ġmail": 3123,
      "Ġread": 3124,
      "formed": 3125,
      "Ġquar": 3126,
      "Ġfemale": 3127,
      "Ġobserving": 3128,
      "Ġpriest": 3129,
      "Ġwait": 3130,
      "Ġiron": 3131,
      "Ġopinion": 3132,
      "ĠKauravas": 3133,
      "Ġcalamity": 3134,
      "Ġquarters": 3135,
      "My": 3136,
      "vati": 3137,
      "estion": 3138,
      "Ġlay": 3139,
      "Ġreached": 3140,
      "Ġliber": 3141,
      "get": 3142,
      "amejaya": 3143,
      "Ġimmobile": 3144,
      "Ġbranch": 3145,
      "So": 3146,
      "field": 3147,
      "gu": 3148,
      "Ġfulf": 3149,
      "Ġgate": 3150,
      "Ġreally": 3151,
      "Ġchariots": 3152,
      "ĠJanardana": 3153,
      "ped": 3154,
      "Ġnames": 3155,
      "Ġvicious": 3156,
      "Ġcher": 3157,
      "Ġsubdu": 3158,
      "Ġremained": 3159,
      "Ġgives": 3160,
      "Ġbewail": 3161,
      "Ġwitness": 3162,
      "oin": 3163,
      "use": 3164,
      "Ġmarch": 3165,
      "Ġsevere": 3166,
      "pping": 3167,
      "iversal": 3168,
      "Ġfoolish": 3169,
      "ividual": 3170,
      "god": 3171,
      "hat": 3172,
      "jit": 3173,
      "Ġmus": 3174,
      "Ġadop": 3175,
      "Ġperfect": 3176,
      "Ġascended": 3177,
      "à¥į": 3178,
      "Ġbu": 3179,
      "ĠAy": 3180,
      "ĠVrikodara": 3181,
      "Ġgreatest": 3182,
      "Ġexpl": 3183,
      "Ġrising": 3184,
      "oses": 3185,
      "Ġentertain": 3186,
      "Ġhandsome": 3187,
      "Ġseemed": 3188,
      "Ġunable": 3189,
      "yapa": 3190,
      "Ġsand": 3191,
      "itable": 3192,
      "Ġreach": 3193,
      "amad": 3194,
      "Ġsevered": 3195,
      "ĠMantras": 3196,
      "cient": 3197,
      "ciation": 3198,
      "Ġwretch": 3199,
      "Ġgirl": 3200,
      "Ġpati": 3201,
      "akar": 3202,
      "Ġupro": 3203,
      "Ġnew": 3204,
      "ĠShikhandin": 3205,
      "Ġbird": 3206,
      "ages": 3207,
      "Ġglory": 3208,
      "aven": 3209,
      "ĠSidd": 3210,
      "Ġdivision": 3211,
      "Ġcommanded": 3212,
      "Ġregarded": 3213,
      ".)": 3214,
      "Ġwrong": 3215,
      "Ġbri": 3216,
      "Ġbeasts": 3217,
      "ows": 3218,
      "ĠKÄģ": 3219,
      "Ġotherwise": 3220,
      "Ġquestion": 3221,
      "Ġprincess": 3222,
      "Ġrulers": 3223,
      "Ġprotecting": 3224,
      "headed": 3225,
      "Ġimmeasurable": 3226,
      "Ġbent": 3227,
      "alk": 3228,
      "andha": 3229,
      "ĠBe": 3230,
      "Ġdet": 3231,
      "Ġdeed": 3232,
      "While": 3233,
      "Ġmobile": 3234,
      "ĠCreat": 3235,
      "Ġstream": 3236,
      "Ġfully": 3237,
      "issant": 3238,
      "Ġmarks": 3239,
      "Ġserpents": 3240,
      "aut": 3241,
      "Ġhome": 3242,
      "Ġph": 3243,
      "Ġhell": 3244,
      "Ġarray": 3245,
      "elt": 3246,
      "augh": 3247,
      "ĠSugriva": 3248,
      "Ġplay": 3249,
      "Ġdistance": 3250,
      "Ġbeloved": 3251,
      "Ġstriking": 3252,
      "Ġresplend": 3253,
      "Ġshape": 3254,
      "Ġillusion": 3255,
      "Ġregarding": 3256,
      "Ġuttering": 3257,
      "Ġestabl": 3258,
      "Ġjewels": 3259,
      "aw": 3260,
      "iod": 3261,
      "avat": 3262,
      "Ġkept": 3263,
      "ement": 3264,
      "Ġperiod": 3265,
      "ĠEven": 3266,
      "Ġpresents": 3267,
      "anging": 3268,
      "ĠAngada": 3269,
      "ĠKing": 3270,
      "Ġprov": 3271,
      "ĠMand": 3272,
      "Ġbehind": 3273,
      "ĠDhrist": 3274,
      "Ġteeth": 3275,
      "Ġpuissant": 3276,
      "rut": 3277,
      "yl": 3278,
      "ences": 3279,
      "ĠYour": 3280,
      "Ġfaces": 3281,
      "ĠListen": 3282,
      "ĠMadh": 3283,
      "Ġfriendship": 3284,
      "Ġcheerful": 3285,
      "Ġdropped": 3286,
      "Ġseized": 3287,
      "ĠRe": 3288,
      "ĠNala": 3289,
      "rasena": 3290,
      "Ġdrag": 3291,
      "Ġfurious": 3292,
      "Ġshoot": 3293,
      "ifted": 3294,
      "ĠShe": 3295,
      "Ġsometimes": 3296,
      "Ġlonger": 3297,
      "Ġopen": 3298,
      "Ġfatig": 3299,
      "ointed": 3300,
      "bod": 3301,
      "Ġmeat": 3302,
      "Ġenqu": 3303,
      "roud": 3304,
      "osity": 3305,
      "Ġwielder": 3306,
      "Ġharsh": 3307,
      "Ġmaiden": 3308,
      "ĠBrÄģhmaá¹ĩ": 3309,
      "Ġmatt": 3310,
      "aining": 3311,
      "Ġartic": 3312,
      "elve": 3313,
      "Ġnoise": 3314,
      "ĠGandhari": 3315,
      "Ġsimilar": 3316,
      "van": 3317,
      "Ġtop": 3318,
      "aved": 3319,
      "Ġstu": 3320,
      "Ġweep": 3321,
      "pect": 3322,
      "Ġdesired": 3323,
      "ĠSubala": 3324,
      "Ġways": 3325,
      "Ġapproaching": 3326,
      "bers": 3327,
      "Ġasyl": 3328,
      "thern": 3329,
      "Ġarri": 3330,
      "laim": 3331,
      "ĠShudra": 3332,
      "Ġimmedi": 3333,
      "Ġsubju": 3334,
      "Ġpraise": 3335,
      "Ġprotector": 3336,
      "Ġcrushed": 3337,
      "Ġfit": 3338,
      "arified": 3339,
      "Ġlooks": 3340,
      "Ġpoor": 3341,
      "ĠYog": 3342,
      "Ġstandards": 3343,
      "control": 3344,
      "Ġdisplay": 3345,
      "Ġcircum": 3346,
      "Ġasylum": 3347,
      "Ġnar": 3348,
      "Ġkeen": 3349,
      "ĠRadha": 3350,
      "Why": 3351,
      "Ġfaith": 3352,
      "Ġattacked": 3353,
      "ĠUn": 3354,
      "Ġproperly": 3355,
      "Ġcontrolled": 3356,
      "ĠKritavar": 3357,
      "Ġhistory": 3358,
      "Ġlibations": 3359,
      "Ġcounsellors": 3360,
      "Ġholding": 3361,
      "Ġstars": 3362,
      "ices": 3363,
      "aps": 3364,
      "ĠGar": 3365,
      "Ġroaring": 3366,
      "Ġtrun": 3367,
      "aughtered": 3368,
      "Ġfollows": 3369,
      "Ġstupe": 3370,
      "Ġmad": 3371,
      "Ġwild": 3372,
      "ĠHeaven": 3373,
      "Ġbeginning": 3374,
      "Ġfamous": 3375,
      "Ġcounsel": 3376,
      "Ġinterest": 3377,
      "ĠDaityas": 3378,
      "Ġuniversal": 3379,
      "Ġmercy": 3380,
      "Ġpartic": 3381,
      "Ġpractices": 3382,
      "Ġmaces": 3383,
      "ĠÅļ": 3384,
      "Bhima": 3385,
      "Ġseveral": 3386,
      "her": 3387,
      "Ġloss": 3388,
      "raid": 3389,
      "Ġshou": 3390,
      "ĠMe": 3391,
      "Ġtwelve": 3392,
      "ĠNag": 3393,
      "Ġprep": 3394,
      "Ġinfl": 3395,
      "Ġengage": 3396,
      "Ġturned": 3397,
      "Ġcontinu": 3398,
      "Ġsought": 3399,
      "atth": 3400,
      "eng": 3401,
      "Ġdom": 3402,
      "Ġdie": 3403,
      "Ġstret": 3404,
      "Ġfragr": 3405,
      "Ġbathed": 3406,
      "ĠJayadratha": 3407,
      "Know": 3408,
      "cest": 3409,
      "Ġsan": 3410,
      "Ġbur": 3411,
      "Ġlaugh": 3412,
      "ĠBeh": 3413,
      "ĠVik": 3414,
      "ront": 3415,
      "ĠAgastya": 3416,
      "Ġpoint": 3417,
      "Ġconcl": 3418,
      "ĠGrandfather": 3419,
      "Ġignorance": 3420,
      "til": 3421,
      "ishtha": 3422,
      "illing": 3423,
      "ĠMadras": 3424,
      "ĠChit": 3425,
      "Ġcrowned": 3426,
      "Ġadvanced": 3427,
      "RÄģma": 3428,
      "She": 3429,
      "ia": 3430,
      "allen": 3431,
      "Ġprop": 3432,
      "Ġcarry": 3433,
      "Ġabs": 3434,
      "Ġplease": 3435,
      "Ġordained": 3436,
      "Ġskill": 3437,
      "Ġattains": 3438,
      "Ġunderstand": 3439,
      "Ġthirst": 3440,
      "Ġcontinued": 3441,
      "Alas": 3442,
      "ĠApsaras": 3443,
      "Å«": 3444,
      "ern": 3445,
      "Ġbound": 3446,
      "Ġcor": 3447,
      "Ġbears": 3448,
      "Ġstring": 3449,
      "Ġclu": 3450,
      "Ġappears": 3451,
      "Ġappearance": 3452,
      "thas": 3453,
      "Ġavo": 3454,
      "isions": 3455,
      "uded": 3456,
      "Ġslaughtered": 3457,
      "Ġclarified": 3458,
      "Ġapart": 3459,
      "ĠVedic": 3460,
      "Ġterrific": 3461,
      "Ġproceeding": 3462,
      "Ġassuming": 3463,
      "velop": 3464,
      "Ġurged": 3465,
      "autama": 3466,
      "Ġresplendent": 3467,
      "Brah": 3468,
      "Go": 3469,
      "nate": 3470,
      "lessly": 3471,
      "Ġordered": 3472,
      "Ġsharpened": 3473,
      "ĠBrihaspati": 3474,
      "lic": 3475,
      "Ġsister": 3476,
      "Ġproud": 3477,
      "avi": 3478,
      "Ġfors": 3479,
      "Ġlions": 3480,
      "Ġgreater": 3481,
      "Ġconsciousness": 3482,
      "Ġpractised": 3483,
      "Ġsovereignty": 3484,
      "Ġportion": 3485,
      "Ġcovet": 3486,
      "Karna": 3487,
      "ager": 3488,
      "Ġfla": 3489,
      "Ġasc": 3490,
      "Ġformed": 3491,
      "eless": 3492,
      "iveness": 3493,
      "Ġcarrying": 3494,
      "ĠNish": 3495,
      "Ġstraight": 3496,
      "ĠSiddhas": 3497,
      "ĠDhristadyumna": 3498,
      "Ġimmediately": 3499,
      "ex": 3500,
      "Ġed": 3501,
      "Ġbright": 3502,
      "Ġfar": 3503,
      "Ġwash": 3504,
      "ĠGang": 3505,
      "Ġresult": 3506,
      "Ġhappily": 3507,
      "Ġanxious": 3508,
      "Ġanswered": 3509,
      "ĠYakshas": 3510,
      "itude": 3511,
      "otk": 3512,
      "ĠShar": 3513,
      "Ġancest": 3514,
      "Ġfraught": 3515,
      "Ġsatisfied": 3516,
      "gnorance": 3517,
      "Ġwelkin": 3518,
      "ases": 3519,
      "rose": 3520,
      "Ġvig": 3521,
      "udras": 3522,
      "Ġafraid": 3523,
      "Ġskilled": 3524,
      "Ġdecre": 3525,
      "Ġthunderbolt": 3526,
      "ĠKaikeyi": 3527,
      "Ġarose": 3528,
      "Ġrendered": 3529,
      "Ġforsooth": 3530,
      "Ġseed": 3531,
      "Ġabounding": 3532,
      "Ġclass": 3533,
      "Ġobtaining": 3534,
      "Ġnecessary": 3535,
      "Ġdetail": 3536,
      "Ġhy": 3537,
      "Ġtrou": 3538,
      "ĠSindh": 3539,
      "Ġexists": 3540,
      "Ġproc": 3541,
      "Ġsort": 3542,
      "ib": 3543,
      "Ġcro": 3544,
      "rows": 3545,
      "osted": 3546,
      "Ġcarwarriors": 3547,
      "ĠFrom": 3548,
      "Ġpractise": 3549,
      "Ġrenounce": 3550,
      "Ġhills": 3551,
      "nis": 3552,
      "ina": 3553,
      "eru": 3554,
      "Ġgained": 3555,
      "Ġland": 3556,
      "udhis": 3557,
      "Ġneck": 3558,
      "ĠBrahmachar": 3559,
      "Ġrushing": 3560,
      "Ġelder": 3561,
      "Ġrenouncing": 3562,
      "Ġgrandson": 3563,
      "udhisthira": 3564,
      "Ġwon": 3565,
      "Ġsour": 3566,
      "Ġhous": 3567,
      "Ġmild": 3568,
      "orting": 3569,
      "Ġyell": 3570,
      "ĠPh": 3571,
      "Ġexte": 3572,
      "Ġregards": 3573,
      "Ġviol": 3574,
      "bera": 3575,
      "Ġhosts": 3576,
      "Ġbranches": 3577,
      "vinda": 3578,
      "Ġà¤": 3579,
      "Ġwin": 3580,
      "Ġfront": 3581,
      "Ġdece": 3582,
      "ĠMats": 3583,
      "Ġperpetu": 3584,
      "Ġrule": 3585,
      "Ġpractising": 3586,
      "Ġarticles": 3587,
      "De": 3588,
      "Ġought": 3589,
      "time": 3590,
      "aman": 3591,
      "ĠPro": 3592,
      "etra": 3593,
      "ĠYad": 3594,
      "Ġraised": 3595,
      "Ġplacing": 3596,
      "Ġacquis": 3597,
      "Ġcloud": 3598,
      "Ġembod": 3599,
      "Ġcommitted": 3600,
      "Ġuncle": 3601,
      "otkacha": 3602,
      "Ġcities": 3603,
      "Ġcase": 3604,
      "Ġmal": 3605,
      "itute": 3606,
      "Ġeager": 3607,
      "standing": 3608,
      "ĠSelf": 3609,
      "Ġmans": 3610,
      "Ġoriginated": 3611,
      "Ġclear": 3612,
      "Ġpurif": 3613,
      "petent": 3614,
      "aternal": 3615,
      "Ġdanger": 3616,
      "Ġtiger": 3617,
      "Ġreal": 3618,
      "oma": 3619,
      "Ġash": 3620,
      "ĠKaus": 3621,
      "Ġsto": 3622,
      "Ġdise": 3623,
      "Ġcompan": 3624,
      "Ġpiercing": 3625,
      "alguna": 3626,
      "Ġreduced": 3627,
      "ĠSindhus": 3628,
      "gni": 3629,
      "Ġline": 3630,
      "Ġshone": 3631,
      "ĠIgnorance": 3632,
      "ĠSar": 3633,
      "Ġancient": 3634,
      "Ġexperi": 3635,
      "ĠShra": 3636,
      "Ġgrand": 3637,
      "Ġrules": 3638,
      "ĠRaksasa": 3639,
      "Ġpiece": 3640,
      "ĠNagas": 3641,
      "Ġid": 3642,
      "rell": 3643,
      "Ġcre": 3644,
      "Ġcreation": 3645,
      "Ġtremb": 3646,
      "ĠMadri": 3647,
      "ĠViÅĽ": 3648,
      "Ġpromise": 3649,
      "Ġsaluted": 3650,
      "utstha": 3651,
      "hatotkacha": 3652,
      "ĠAyod": 3653,
      "ook": 3654,
      "yond": 3655,
      "lly": 3656,
      "Ġnat": 3657,
      "uture": 3658,
      "Ġpossessing": 3659,
      "Ġequally": 3660,
      "Ġperformance": 3661,
      "Ġsummit": 3662,
      "cul": 3663,
      "Ġbus": 3664,
      "ayati": 3665,
      "Ġumb": 3666,
      "Ġexh": 3667,
      "Ġquality": 3668,
      "Ġconso": 3669,
      "necked": 3670,
      "Ġfeats": 3671,
      "Ġsouls": 3672,
      "Ġenjoyment": 3673,
      "Ġdecla": 3674,
      "Ġbeneficial": 3675,
      "Ġdeserve": 3676,
      "Ġinjury": 3677,
      "Ġaccepted": 3678,
      "Ġinflamed": 3679,
      "Ġfif": 3680,
      "avati": 3681,
      "Ġkne": 3682,
      "adh": 3683,
      "Ġant": 3684,
      "Ġobst": 3685,
      "Ġelements": 3686,
      "Ġgraced": 3687,
      "ĠYuga": 3688,
      "Ġumbrell": 3689,
      "Ġgras": 3690,
      "Ġluck": 3691,
      "Ġyoked": 3692,
      "Ġnine": 3693,
      "ĠSank": 3694,
      "ĠSaras": 3695,
      "Ġsees": 3696,
      "Ġmention": 3697,
      "Ġmounted": 3698,
      "Ġhunger": 3699,
      "Ġbegotten": 3700,
      "Ġfortune": 3701,
      "Ġprofuse": 3702,
      "Ġire": 3703,
      "Ġbaff": 3704,
      "Ġtong": 3705,
      "asha": 3706,
      "Ġleaves": 3707,
      "Ġconsisting": 3708,
      "Ġheavy": 3709,
      "Ġsmall": 3710,
      "abha": 3711,
      "Ġobserved": 3712,
      "Ġhousehold": 3713,
      "Ġclean": 3714,
      "Ġcovetous": 3715,
      "Drona": 3716,
      "Draupadi": 3717,
      "St": 3718,
      "mp": 3719,
      "that": 3720,
      "Ġpale": 3721,
      "Ġlances": 3722,
      "aly": 3723,
      "fices": 3724,
      "Ġleast": 3725,
      "Ġcommun": 3726,
      "Ġattention": 3727,
      "Ġrecited": 3728,
      "Ġlightning": 3729,
      "Ġattend": 3730,
      "Ġextreme": 3731,
      "Ġintention": 3732,
      "xes": 3733,
      "Ġhence": 3734,
      "Ġrejo": 3735,
      "ĠOf": 3736,
      "udge": 3737,
      "ĠNah": 3738,
      "tingu": 3739,
      "Ġobserve": 3740,
      "Ġpresented": 3741,
      "Ġdrinking": 3742,
      "end": 3743,
      "ict": 3744,
      "rad": 3745,
      "ĠSa": 3746,
      "ĠPrish": 3747,
      "Ġarran": 3748,
      "Ġaloud": 3749,
      "Ġarmies": 3750,
      "Ġneed": 3751,
      "Ġacquainted": 3752,
      "Ġexceeding": 3753,
      "Ġachieved": 3754,
      "cer": 3755,
      "den": 3756,
      "Ġaim": 3757,
      "Ġinsp": 3758,
      "Ġlap": 3759,
      "ral": 3760,
      "unciation": 3761,
      "ĠNature": 3762,
      "Ġoffering": 3763,
      "Ġindul": 3764,
      "ranqu": 3765,
      "Ġrange": 3766,
      "ĠAshvatth": 3767,
      "Ġparticular": 3768,
      "Ġhouses": 3769,
      "dra": 3770,
      "rung": 3771,
      "Ġrecite": 3772,
      "Ġdivisions": 3773,
      "ribute": 3774,
      "Ġdeterm": 3775,
      "Of": 3776,
      "action": 3777,
      "inal": 3778,
      "ident": 3779,
      "ĠDur": 3780,
      "pelled": 3781,
      "ourne": 3782,
      "ĠShrut": 3783,
      "ritra": 3784,
      "ĠVasus": 3785,
      "Ġwrathful": 3786,
      "Ġcastes": 3787,
      "Ġflying": 3788,
      "ĠKumbh": 3789,
      "being": 3790,
      "here": 3791,
      "arsh": 3792,
      "ĠSud": 3793,
      "apt": 3794,
      "aped": 3795,
      "apati": 3796,
      "Ġobed": 3797,
      "Ġworldly": 3798,
      "Ġhue": 3799,
      "Ġpleasant": 3800,
      "Ġdelay": 3801,
      "Ġinfant": 3802,
      "Ġserve": 3803,
      "Ġleader": 3804,
      "Ġsupported": 3805,
      "Ġfirmament": 3806,
      "Ġforgiveness": 3807,
      "ĠGaruda": 3808,
      "Ġascertain": 3809,
      "ĠShradd": 3810,
      "ey": 3811,
      "atched": 3812,
      "Ġminds": 3813,
      "Ġmode": 3814,
      "Ġfact": 3815,
      "Ġplan": 3816,
      "Ġproduced": 3817,
      "ners": 3818,
      "Ġhone": 3819,
      "tiv": 3820,
      "Ġshining": 3821,
      "Ġcompetent": 3822,
      "Ġmanes": 3823,
      "ossible": 3824,
      "Ġtreas": 3825,
      "Ġdiscus": 3826,
      "Ġfrequ": 3827,
      "Ġconferred": 3828,
      "Ġpunishment": 3829,
      "Ġoblations": 3830,
      "ĠUtt": 3831,
      "ĠMadhava": 3832,
      "eya": 3833,
      "adas": 3834,
      "Ġrev": 3835,
      "Ġheat": 3836,
      "ĠPrah": 3837,
      "resis": 3838,
      "antra": 3839,
      "ĠTruth": 3840,
      "Ġbeho": 3841,
      "Ġbloss": 3842,
      "Ġdelightful": 3843,
      "anka": 3844,
      "Ġdiscourse": 3845,
      "Ġcountries": 3846,
      "Ġachieve": 3847,
      "ĠVaidehi": 3848,
      "Ġfleet": 3849,
      "com": 3850,
      "known": 3851,
      "Ġtranqu": 3852,
      "Ġden": 3853,
      "Ġbeyond": 3854,
      "andeya": 3855,
      "Ġforward": 3856,
      "ĠBal": 3857,
      "ĠVritra": 3858,
      "tering": 3859,
      "Ġexile": 3860,
      "ĠLike": 3861,
      "Ġevening": 3862,
      "ÅŁa": 3863,
      "Ġrelated": 3864,
      "Ġenjoys": 3865,
      "Ġstrike": 3866,
      "Ġbringing": 3867,
      "Ġcarefully": 3868,
      "Ġobservance": 3869,
      "Ġriding": 3870,
      "Ġmaintain": 3871,
      "ipped": 3872,
      "ler": 3873,
      "ze": 3874,
      "Ġowing": 3875,
      "Ġshare": 3876,
      "ains": 3877,
      "Ġstaying": 3878,
      "Ġconne": 3879,
      "etted": 3880,
      "Ġunto": 3881,
      "ĠNo": 3882,
      "Ġbowed": 3883,
      "cially": 3884,
      "Ġappre": 3885,
      "Ġjourne": 3886,
      "ĠVishv": 3887,
      "ĠHanuman": 3888,
      "Ġestablished": 3889,
      "Ġcircumst": 3890,
      "veloped": 3891,
      "Ġhoney": 3892,
      "Ġau": 3893,
      "Ġcra": 3894,
      "anim": 3895,
      "ghna": 3896,
      "ĠDark": 3897,
      "ĠGhatotkacha": 3898,
      "Ġrig": 3899,
      "Ġeverywhere": 3900,
      "Ġhusbands": 3901,
      "Ġguests": 3902,
      "ceiving": 3903,
      "Ġsupport": 3904,
      "Ġirresis": 3905,
      "Ġthigh": 3906,
      "Ġcall": 3907,
      "Ġmatch": 3908,
      "ĠSo": 3909,
      "ĠMeru": 3910,
      "Ġdissolution": 3911,
      "arkandeya": 3912,
      "Ġwomb": 3913,
      "righteous": 3914,
      "Here": 3915,
      "Nar": 3916,
      "Ġemit": 3917,
      "ĠHari": 3918,
      "Ġpropit": 3919,
      "Ġaccosted": 3920,
      "Ġflames": 3921,
      "yasach": 3922,
      "Ġpurity": 3923,
      "Ġadvice": 3924,
      "ĠDashar": 3925,
      "Ġconchs": 3926,
      "Ġrigid": 3927,
      "janas": 3928,
      "land": 3929,
      "Ġsmit": 3930,
      "Ġnet": 3931,
      "Ġmyst": 3932,
      "ĠRÄģvaÅĨa": 3933,
      "ĠGautama": 3934,
      "asting": 3935,
      "fortu": 3936,
      "lessness": 3937,
      "Ġattaining": 3938,
      "Ġsurp": 3939,
      "Ġpreceptors": 3940,
      "Ġdirection": 3941,
      "Ġcasting": 3942,
      "ĠPraj": 3943,
      "ĠPrishata": 3944,
      "mong": 3945,
      "Ġthick": 3946,
      "Ġsigh": 3947,
      "Ġbar": 3948,
      "iras": 3949,
      "Ġaside": 3950,
      "ils": 3951,
      "osing": 3952,
      "Ġrich": 3953,
      "Ġscor": 3954,
      "ĠYuy": 3955,
      "ĠKashyapa": 3956,
      "over": 3957,
      "Ġstone": 3958,
      "ĠHear": 3959,
      "Ġfold": 3960,
      "Thereafter": 3961,
      "Ġmoving": 3962,
      "Ġourselves": 3963,
      "Ġsummon": 3964,
      "Ġintent": 3965,
      "Ġshouts": 3966,
      "ĠNahusha": 3967,
      "Ġirresistible": 3968,
      "kas": 3969,
      "Ġi": 3970,
      "ination": 3971,
      "Ġposition": 3972,
      "Ġwhetted": 3973,
      "Ġeas": 3974,
      "ĠManu": 3975,
      "urely": 3976,
      "irtue": 3977,
      "arer": 3978,
      "Ġinner": 3979,
      "Ġpatience": 3980,
      "Ġacquisition": 3981,
      "hya": 3982,
      "ple": 3983,
      "Ġsore": 3984,
      "Ġtas": 3985,
      "Ġtried": 3986,
      "Ġcy": 3987,
      "Ġcry": 3988,
      "itri": 3989,
      "Ġlords": 3990,
      "ored": 3991,
      "Ġcontaining": 3992,
      "soldiers": 3993,
      "Ġchan": 3994,
      "Ġboy": 3995,
      "leased": 3996,
      "Ġinfer": 3997,
      "Ġcondition": 3998,
      "Ġinstall": 3999,
      "controlled": 4000,
      "ayanti": 4001,
      "ourage": 4002,
      "Ġhom": 4003,
      "Ġcat": 4004,
      "ĠTo": 4005,
      "ĠTen": 4006,
      "Ġbehove": 4007,
      "Ġcauses": 4008,
      "Ġsitting": 4009,
      "Ġgeneral": 4010,
      "Ġserpent": 4011,
      "Ġdisplaying": 4012,
      "ĠRÄģká¹£asas": 4013,
      "No": 4014,
      "kutstha": 4015,
      "ping": 4016,
      "yodhana": 4017,
      "Ġmess": 4018,
      "Ġga": 4019,
      "Ġears": 4020,
      "ĠAmb": 4021,
      "Ġstarted": 4022,
      "Ġworked": 4023,
      "Ġimpetu": 4024,
      "Ġsolic": 4025,
      "ĠCreator": 4026,
      "Ġprepared": 4027,
      "ĠDarkness": 4028,
      "dy": 4029,
      "liness": 4030,
      "xion": 4031,
      "Ġhour": 4032,
      "rughna": 4033,
      "icy": 4034,
      "Ġprofit": 4035,
      "Where": 4036,
      "Ġrelate": 4037,
      "mitra": 4038,
      "airs": 4039,
      "Ġinstalled": 4040,
      "Ġguard": 4041,
      "Ġsitu": 4042,
      "Ġrescue": 4043,
      "hyÄģ": 4044,
      "Ġescape": 4045,
      "Ġshooting": 4046,
      "ÈĽ": 4047,
      "ories": 4048,
      "Ġdre": 4049,
      "Ġyo": 4050,
      "Ġvent": 4051,
      "uding": 4052,
      "form": 4053,
      "Ġqueen": 4054,
      "ĠMadra": 4055,
      "Ġsixty": 4056,
      "ĠSavyasach": 4057,
      "ĠPhalguna": 4058,
      "?\"": 4059,
      "Such": 4060,
      "dued": 4061,
      "gra": 4062,
      "Ġwal": 4063,
      "Ġmag": 4064,
      "Ġgent": 4065,
      "Ġleng": 4066,
      "Ġere": 4067,
      "Ġtwang": 4068,
      "Ġvarie": 4069,
      "araja": 4070,
      "acious": 4071,
      "Ġanimal": 4072,
      "Ġentirely": 4073,
      "ĠKaurava": 4074,
      "Ġdeceit": 4075,
      "Vas": 4076,
      "gas": 4077,
      "essel": 4078,
      "Ġcens": 4079,
      "Ġment": 4080,
      "ulted": 4081,
      "Ġunion": 4082,
      "Ġcreator": 4083,
      "Ġjack": 4084,
      "Ġoppressed": 4085,
      "Ġcapital": 4086,
      "Ġmarried": 4087,
      "Ġcovering": 4088,
      "Ġfuture": 4089,
      "Ġgre": 4090,
      "ĠOcean": 4091,
      "thers": 4092,
      "Ġvessel": 4093,
      "aksha": 4094,
      "Ġcheerfully": 4095,
      "Ġtigers": 4096,
      "Ġdisappeared": 4097,
      "Ġhab": 4098,
      "isible": 4099,
      "Ġfun": 4100,
      "Ġmort": 4101,
      "Ġpot": 4102,
      "Ġvill": 4103,
      "aun": 4104,
      "Ġsport": 4105,
      "Ġunrighteous": 4106,
      "Ġtwins": 4107,
      "ficient": 4108,
      "Ġexcept": 4109,
      "Ġencirc": 4110,
      "ĠGandharva": 4111,
      "ukha": 4112,
      "ĠVrishnis": 4113,
      "ception": 4114,
      "Ġordinances": 4115,
      "ĠDestiny": 4116,
      "Ġspiritual": 4117,
      "Ġtemp": 4118,
      "An": 4119,
      "rone": 4120,
      "rep": 4121,
      "Ġdish": 4122,
      "Ġpast": 4123,
      "Ġshore": 4124,
      "Ġsuper": 4125,
      "achas": 4126,
      "Ġhappened": 4127,
      "Ġranks": 4128,
      "ĠVÄģli": 4129,
      "ĠTirtha": 4130,
      "Ġpalms": 4131,
      "ĠKritavarman": 4132,
      "ĠSarasvati": 4133,
      "Ġlength": 4134,
      "Ġrou": 4135,
      "inite": 4136,
      "Ġsy": 4137,
      "Ġcourage": 4138,
      "oms": 4139,
      "Ġshed": 4140,
      "verse": 4141,
      "amayanti": 4142,
      "Ġsaint": 4143,
      "Ġdog": 4144,
      "ived": 4145,
      "upid": 4146,
      "Ġblue": 4147,
      "Ġtremble": 4148,
      "Ġdepressed": 4149,
      "Ġintelle": 4150,
      "Ġsmoke": 4151,
      "ĠVibhÄ«": 4152,
      "vÄģmitra": 4153,
      "merly": 4154,
      "Ġceremonies": 4155,
      "Ġvariegated": 4156,
      "jayas": 4157,
      "nas": 4158,
      "Ġled": 4159,
      "Ġsaints": 4160,
      "Ġlie": 4161,
      "ĠRÄĥ": 4162,
      "uted": 4163,
      "Ġpray": 4164,
      "Ġcomposed": 4165,
      "Ġimpro": 4166,
      "arasandha": 4167,
      "ĠGovinda": 4168,
      "Ġsubduer": 4169,
      "Ġashes": 4170,
      "ration": 4171,
      "Ġ0": 4172,
      "Ġpowers": 4173,
      "ayu": 4174,
      "amitra": 4175,
      "ĠRÃ": 4176,
      "Ġrise": 4177,
      "Ġsubdued": 4178,
      "ĠSuyodhana": 4179,
      "Ġattack": 4180,
      "Ġrespected": 4181,
      "Ġplun": 4182,
      "Ġbetter": 4183,
      "Ġcursed": 4184,
      "ĠDharm": 4185,
      "Ġthird": 4186,
      "Ġassumed": 4187,
      "Ġsilent": 4188,
      "ĠKubera": 4189,
      "Ġresolved": 4190,
      "Ġsource": 4191,
      "Ġexhau": 4192,
      "Ġmagn": 4193,
      "Ex": 4194,
      "Ġhither": 4195,
      "Ġfro": 4196,
      "Ġfury": 4197,
      "Ġbeget": 4198,
      "Ġshame": 4199,
      "Ġincom": 4200,
      "ĠUp": 4201,
      "ĠFire": 4202,
      "ĠChed": 4203,
      "Ġmidd": 4204,
      "rosia": 4205,
      "Ġremaining": 4206,
      "ĠHimavat": 4207,
      "Ġanswer": 4208,
      "ĠBhagadatta": 4209,
      "ÅŁaÅĨa": 4210,
      "Ġgentle": 4211,
      "my": 4212,
      "Ġmixed": 4213,
      "itrÄģ": 4214,
      "Ġfort": 4215,
      "ĠKir": 4216,
      "Ġcard": 4217,
      "Ġchaste": 4218,
      "ĠGood": 4219,
      "ĠLaksh": 4220,
      "Ġmonarchs": 4221,
      "à¤¾": 4222,
      "Ġscattered": 4223,
      "Ġdirected": 4224,
      "Ġmeeting": 4225,
      "garding": 4226,
      "Ġvultures": 4227,
      "body": 4228,
      "Ġbusiness": 4229,
      "Ġcircumstances": 4230,
      "hip": 4231,
      "ters": 4232,
      "Ġwing": 4233,
      "ĠKap": 4234,
      "Ġstep": 4235,
      "Ġworks": 4236,
      "ĠHence": 4237,
      "Ġspent": 4238,
      "Ġunt": 4239,
      "Ġblow": 4240,
      "Ġdestroys": 4241,
      "agon": 4242,
      "Ġskin": 4243,
      "ĠUnder": 4244,
      "Ġinfuri": 4245,
      "Ġsmell": 4246,
      "Ġhonours": 4247,
      "Ġvictorious": 4248,
      "Ġpassions": 4249,
      "Ġservice": 4250,
      "Ġdwellers": 4251,
      "Ġvehic": 4252,
      "Ġprincipal": 4253,
      "ĠSrinjayas": 4254,
      "Ġgovern": 4255,
      "Ġsandal": 4256,
      "amadag": 4257,
      "Ġbore": 4258,
      "Ġpaid": 4259,
      "Ġtown": 4260,
      "Ġgard": 4261,
      "Ġgets": 4262,
      "anta": 4263,
      "Ġmang": 4264,
      "Ġappointed": 4265,
      "while": 4266,
      "Ġsucceeded": 4267,
      "Ġcrown": 4268,
      "Ġtouched": 4269,
      "ĠDestroy": 4270,
      "Ġembraced": 4271,
      "Ġmalice": 4272,
      "ĠAyodhyÄģ": 4273,
      "Ġintellect": 4274,
      "Jan": 4275,
      "Or": 4276,
      "Ġeating": 4277,
      "ads": 4278,
      "string": 4279,
      "Ġshowed": 4280,
      "ĠSita": 4281,
      "ĠYaj": 4282,
      "Ġmanner": 4283,
      "ĠNa": 4284,
      "Ġbestow": 4285,
      "Ġborne": 4286,
      "manifest": 4287,
      "Ġinvisible": 4288,
      "Ġadvance": 4289,
      "Ġcomplexion": 4290,
      "Ġwheel": 4291,
      "Ġconcent": 4292,
      "Ġexerc": 4293,
      "Ġdaily": 4294,
      "ĠChitrasena": 4295,
      "iÅŁ": 4296,
      "mits": 4297,
      "Ġcorn": 4298,
      "Ġinformed": 4299,
      "Ġwithdra": 4300,
      "avya": 4301,
      "Ġseems": 4302,
      "ructed": 4303,
      "Ġconte": 4304,
      "ĠMith": 4305,
      "ĠShal": 4306,
      "aughters": 4307,
      "Ġpreser": 4308,
      "mend": 4309,
      "Ġfourth": 4310,
      "Ġhonest": 4311,
      "mense": 4312,
      "ĠJanamejaya": 4313,
      "ĠKÄģkutstha": 4314,
      "Ġweeping": 4315,
      "Su": 4316,
      "fum": 4317,
      "Ġdress": 4318,
      "Ġseats": 4319,
      "Ġenhan": 4320,
      "Ġsprung": 4321,
      "Ġchallen": 4322,
      "Ġaged": 4323,
      "Ġperpet": 4324,
      "rink": 4325,
      "Ġflower": 4326,
      "Ġremoved": 4327,
      "Ġnights": 4328,
      "Ġwax": 4329,
      "Ġfinding": 4330,
      "ĠSumitrÄģ": 4331,
      "Ġsmiling": 4332,
      "Ġdisciples": 4333,
      "Ġpolicy": 4334,
      "Ġstupefied": 4335,
      "Ġcardinal": 4336,
      "isen": 4337,
      "Ġdign": 4338,
      "ĠOh": 4339,
      "Ġthereof": 4340,
      "Ġperfum": 4341,
      "ĠNor": 4342,
      "Ġimmense": 4343,
      "Ġretreat": 4344,
      "ably": 4345,
      "Ġhostil": 4346,
      "Ġtouching": 4347,
      "Ġdevoid": 4348,
      "Ġspirits": 4349,
      "pitude": 4350,
      "Ġkeeping": 4351,
      "Ġinhabited": 4352,
      "Ġmarriage": 4353,
      "Ġcompletely": 4354,
      "Ġperfectly": 4355,
      "Ġfatigue": 4356,
      "Ġabsence": 4357,
      "ĠViÅĽvÄģmitra": 4358,
      "Ġknew": 4359,
      "amadagni": 4360,
      "Ġthrone": 4361,
      "Ġble": 4362,
      "Ġfelt": 4363,
      "aries": 4364,
      "orts": 4365,
      "Ġdaughters": 4366,
      "Ġpiety": 4367,
      "ales": 4368,
      "ĠSk": 4369,
      "ĠKin": 4370,
      "Ġmothers": 4371,
      "ĠChand": 4372,
      "Ġpassing": 4373,
      "Ġpassion": 4374,
      "Ġleaders": 4375,
      "Ġsenseless": 4376,
      "Ġmale": 4377,
      "ĠAlas": 4378,
      "ĠRÃ¤kÅŁ": 4379,
      "ĠTirthas": 4380,
      "Ġcherish": 4381,
      "aired": 4382,
      "og": 4383,
      "Ġmul": 4384,
      "Ġdeli": 4385,
      "Ġchest": 4386,
      "Ġrod": 4387,
      "Ġsetting": 4388,
      "Ġguest": 4389,
      "Ġbathing": 4390,
      "Ġmodes": 4391,
      "Ġcombatants": 4392,
      "Ġuproar": 4393,
      "Ġantagon": 4394,
      "Narada": 4395,
      "lli": 4396,
      "chief": 4397,
      "ĠSakra": 4398,
      "Ġlips": 4399,
      "Ġstones": 4400,
      "ructi": 4401,
      "ĠMat": 4402,
      "Ġclose": 4403,
      "Ġwaiting": 4404,
      "Ġconsumed": 4405,
      "Ġincrease": 4406,
      "Ġinferior": 4407,
      "Vyasa": 4408,
      "Ġwide": 4409,
      "Ġwhir": 4410,
      "leep": 4411,
      "charge": 4412,
      "ĠIs": 4413,
      "orns": 4414,
      "ateful": 4415,
      "Ġcreate": 4416,
      "ounds": 4417,
      "Ġlocks": 4418,
      "Ġascending": 4419,
      "ĠSomadatta": 4420,
      "Ġdepends": 4421,
      "Ġdriver": 4422,
      "Ġsmilingly": 4423,
      "Ġreverence": 4424,
      "ĠBrÄģhmaá¹ĩas": 4425,
      "ĠBeholding": 4426,
      "Ġdream": 4427,
      "ructible": 4428,
      "vat": 4429,
      "these": 4430,
      "esha": 4431,
      "tired": 4432,
      "Ġlies": 4433,
      "Ġdem": 4434,
      "ĠDes": 4435,
      "Ġbowing": 4436,
      "Ġmotion": 4437,
      "Ġprecious": 4438,
      "Ġpraised": 4439,
      "Ġequipped": 4440,
      "aco": 4441,
      "Ġhelpless": 4442,
      "Ġinstruments": 4443,
      "Ġmasses": 4444,
      "Ġordinance": 4445,
      "Ġbrilli": 4446,
      "Ġhymn": 4447,
      "Ġinfantry": 4448,
      "Ġexhausted": 4449,
      "Many": 4450,
      "gle": 4451,
      "Ġfur": 4452,
      "Ġcost": 4453,
      "Ġder": 4454,
      "Ġpay": 4455,
      "Ġprog": 4456,
      "itya": 4457,
      "ĠMÄģ": 4458,
      "Ġcool": 4459,
      "Ġseeks": 4460,
      "Ġfourteen": 4461,
      "Ġhumility": 4462,
      "ĠRajas": 4463,
      "mination": 4464,
      "Ġthrown": 4465,
      "Ġattachment": 4466,
      "Ġdiad": 4467,
      "Ġphys": 4468,
      "Ġcompanions": 4469,
      "Ġjourney": 4470,
      "dh": 4471,
      "either": 4472,
      "hini": 4473,
      "Ġ1": 4474,
      "inary": 4475,
      "Ġwhence": 4476,
      "ĠDv": 4477,
      "Ġdischarge": 4478,
      "iratha": 4479,
      "Ġovert": 4480,
      "ĠJarasandha": 4481,
      "Ġpeaco": 4482,
      "angers": 4483,
      "Ġenjoyed": 4484,
      "Ġlightness": 4485,
      "Ġnumberless": 4486,
      "Ġdrums": 4487,
      "Ġbaffled": 4488,
      "Ġpropiti": 4489,
      "Ġfires": 4490,
      "Ġtaste": 4491,
      "Ġwithst": 4492,
      "Ġhealth": 4493,
      "Ġexper": 4494,
      "Ġextra": 4495,
      "Ġupl": 4496,
      "Ġhigher": 4497,
      "asta": 4498,
      "Ġovercome": 4499,
      "ension": 4500,
      "plo": 4501,
      "Ġblind": 4502,
      "ĠJamadagni": 4503,
      "Ġsubs": 4504,
      "Ġindividual": 4505,
      "ĠViÅŁ": 4506,
      "Ġvanquish": 4507,
      "Ġpromised": 4508,
      "Ġpouring": 4509,
      "Ġremembering": 4510,
      "ĠDharmaraja": 4511,
      "ĠDestroyer": 4512,
      "cl": 4513,
      "cies": 4514,
      "there": 4515,
      "Ġtus": 4516,
      "Ġcaste": 4517,
      "ĠRen": 4518,
      "ĠDamayanti": 4519,
      "Ġfaults": 4520,
      "Ġresidence": 4521,
      "Ġtremend": 4522,
      "Ġheavens": 4523,
      "Without": 4524,
      "Ġbanner": 4525,
      "à¥¤": 4526,
      "Ġremains": 4527,
      "Ġexertion": 4528,
      "Ġcross": 4529,
      "rangers": 4530,
      "Ġembodied": 4531,
      "endra": 4532,
      "yu": 4533,
      "ators": 4534,
      "Ġfet": 4535,
      "Ġmill": 4536,
      "Ġbef": 4537,
      "Ġshattered": 4538,
      "Ġremove": 4539,
      "Ġafflict": 4540,
      "Ġoriginate": 4541,
      "Ġmeaning": 4542,
      "Ġadvancing": 4543,
      "Ġthighs": 4544,
      "Ġdignity": 4545,
      "May": 4546,
      "nts": 4547,
      "Ġcav": 4548,
      "roach": 4549,
      "itions": 4550,
      "tide": 4551,
      "ĠSur": 4552,
      "ĠDva": 4553,
      "Äģs": 4554,
      "Ġenv": 4555,
      "Ġconce": 4556,
      "Ġamb": 4557,
      "Ġtwin": 4558,
      "ashva": 4559,
      "ikas": 4560,
      "Ġacting": 4561,
      "Ġencount": 4562,
      "Ġscion": 4563,
      "Ġwoe": 4564,
      "Ġdrawing": 4565,
      "ambo": 4566,
      "Ġwheels": 4567,
      "Ġdeeply": 4568,
      "acrifices": 4569,
      "Ġsilver": 4570,
      "idden": 4571,
      "Ġinhabit": 4572,
      "Ġdisciple": 4573,
      "Ġpenetrated": 4574,
      "Ġtremendous": 4575,
      "ec": 4576,
      "Ġfem": 4577,
      "orant": 4578,
      "Ġdose": 4579,
      "Ġshel": 4580,
      "ĠSind": 4581,
      "icate": 4582,
      "cking": 4583,
      "Ġfathers": 4584,
      "urand": 4585,
      "ails": 4586,
      "ĠVasishtha": 4587,
      "Ġpriests": 4588,
      "Behold": 4589,
      "Ġemplo": 4590,
      "Ġinstructions": 4591,
      "Ġchecked": 4592,
      "Ġceremony": 4593,
      "Ġquarre": 4594,
      "Ġancestors": 4595,
      "Ġmiddle": 4596,
      "night": 4597,
      "overed": 4598,
      "pour": 4599,
      "sacrifice": 4600,
      "Ġess": 4601,
      "Ġwest": 4602,
      "Ġpare": 4603,
      "adhas": 4604,
      "Ġreasons": 4605,
      "aked": 4606,
      "Ġenveloped": 4607,
      "oks": 4608,
      "Ġbestowed": 4609,
      "ipayana": 4610,
      "ensive": 4611,
      "Ġseeking": 4612,
      "Ġterrified": 4613,
      "atsu": 4614,
      "Ġoriginates": 4615,
      "Ġoccup": 4616,
      "Ġbenefit": 4617,
      "Ġclothes": 4618,
      "Ġmeditation": 4619,
      "ĠUnderstanding": 4620,
      "dha": 4621,
      "Ġoffic": 4622,
      "Ġpite": 4623,
      "lying": 4624,
      "utas": 4625,
      "ĠVip": 4626,
      "Ġadvers": 4627,
      "Ġspring": 4628,
      "Ġslight": 4629,
      "Ġfeather": 4630,
      "ĠChar": 4631,
      "Ġrepaired": 4632,
      "ĠMahendra": 4633,
      "ĠMahar": 4634,
      "Ġgrandsire": 4635,
      "Ġembracing": 4636,
      "Ġmentioned": 4637,
      "Ġdetermined": 4638,
      "Ġmangled": 4639,
      "Ġshelter": 4640,
      "fold": 4641,
      "atk": 4642,
      "Ġpit": 4643,
      "ravas": 4644,
      "Ġreceive": 4645,
      "Ġven": 4646,
      "Ġdiss": 4647,
      "Ġappearing": 4648,
      "Ġdescendants": 4649,
      "Ġputting": 4650,
      "Ġdwelling": 4651,
      "Ġgranted": 4652,
      "ĠKnowledge": 4653,
      "Ġfulfilled": 4654,
      "Ġarrival": 4655,
      "Ġfragrant": 4656,
      "ĠBrahmacharya": 4657,
      "Ġmansion": 4658,
      "Ġnatura": 4659,
      "Ġauth": 4660,
      "Des": 4661,
      "Vid": 4662,
      "iable": 4663,
      "rous": 4664,
      "Ġcave": 4665,
      "Ġcran": 4666,
      "alut": 4667,
      "omasha": 4668,
      "ĠVirtue": 4669,
      "Ġagg": 4670,
      "astin": 4671,
      "haus": 4672,
      "Ġpleasing": 4673,
      "lutions": 4674,
      "Ġjum": 4675,
      "rents": 4676,
      "ĠRaghava": 4677,
      "handed": 4678,
      "Ġconsume": 4679,
      "Ġcrossed": 4680,
      "Ġfaultless": 4681,
      "ĠSrinjaya": 4682,
      "Ġdecrepitude": 4683,
      "Ġtask": 4684,
      ",'": 4685,
      "En": 4686,
      "bles": 4687,
      "eral": 4688,
      "Ġmere": 4689,
      "ĠRo": 4690,
      "Ġvain": 4691,
      "Ġsex": 4692,
      "Ġthereupon": 4693,
      "Ġrocks": 4694,
      "Ġbliss": 4695,
      "ĠDeity": 4696,
      "Ġcourt": 4697,
      "Ġthoughts": 4698,
      "Ġwaited": 4699,
      "Ġproduce": 4700,
      "Ġconstell": 4701,
      "Ġpurposes": 4702,
      "Ġmonths": 4703,
      "Ġcollected": 4704,
      "Ġclubs": 4705,
      "Ġumbrella": 4706,
      "urandara": 4707,
      "ues": 4708,
      "Ġwrought": 4709,
      "Ġcou": 4710,
      "aded": 4711,
      "chana": 4712,
      "uru": 4713,
      "Ġsend": 4714,
      "resent": 4715,
      "Ġorg": 4716,
      "ĠGu": 4717,
      "Ġdestitute": 4718,
      "Ġactu": 4719,
      "Ġsuccessful": 4720,
      "Ġexcess": 4721,
      "Ġexclaim": 4722,
      "Ġcelebrate": 4723,
      "Ġaustere": 4724,
      "Ġaccomplishments": 4725,
      "Ġmusic": 4726,
      "Ġavoid": 4727,
      "Ġtrembling": 4728,
      "Ġimproper": 4729,
      "ĠSindhu": 4730,
      "mity": 4731,
      "ince": 4732,
      "ndh": 4733,
      "Ġtri": 4734,
      "anya": 4735,
      "Ġeman": 4736,
      "sec": 4737,
      "Though": 4738,
      "Ġdef": 4739,
      "Ġsuf": 4740,
      "Ġart": 4741,
      "Ġcold": 4742,
      "Ġserving": 4743,
      "ification": 4744,
      "Ġimmortals": 4745,
      "Ġencircled": 4746,
      "Ġconceal": 4747,
      "rise": 4748,
      "you": 4749,
      "Ġbit": 4750,
      "Ġfine": 4751,
      "Ġtill": 4752,
      "tika": 4753,
      "Ġasleep": 4754,
      "ctar": 4755,
      "ify": 4756,
      "uman": 4757,
      "Ġranging": 4758,
      "Ġillus": 4759,
      "Ġpurged": 4760,
      "Ġconfidence": 4761,
      "Ġbelongs": 4762,
      "Ġdifficulty": 4763,
      "Ġsleeping": 4764,
      "Ġholder": 4765,
      "Ġespe": 4766,
      "Ġignorant": 4767,
      "ĠVaishya": 4768,
      "Ġswiftly": 4769,
      "Ġsigns": 4770,
      "Ġmarched": 4771,
      "Ġdragged": 4772,
      "Ġstopped": 4773,
      "Ġrejoic": 4774,
      "astinap": 4775,
      "hika": 4776,
      "kes": 4777,
      "Ġsway": 4778,
      "Ġla": 4779,
      "Ġease": 4780,
      "Ġissued": 4781,
      "Ġforb": 4782,
      "ĠAksh": 4783,
      "ĠVin": 4784,
      "Ġfond": 4785,
      "Ġspouse": 4786,
      "Ġhighsouled": 4787,
      "Ġperceive": 4788,
      "Ġends": 4789,
      "Ġvile": 4790,
      "Ġswans": 4791,
      "agara": 4792,
      "Ġremo": 4793,
      "Ġhereafter": 4794,
      "Ġpursu": 4795,
      "Ġpointed": 4796,
      "worthy": 4797,
      "Ġstreams": 4798,
      "Ġapartment": 4799,
      "Ġtongue": 4800,
      "Ġcleansed": 4801,
      "Ġcovetousness": 4802,
      "ĠSkanda": 4803,
      "ening": 4804,
      "avel": 4805,
      "ameless": 4806,
      "Ġvision": 4807,
      "ĠPurandara": 4808,
      "Ġtheirs": 4809,
      "ĠMag": 4810,
      "Ġdisgu": 4811,
      "Ġarmours": 4812,
      "Ġablutions": 4813,
      "Ġbroke": 4814,
      "ĠEx": 4815,
      "ĠVeda": 4816,
      "Ġdistin": 4817,
      "Ġworshipping": 4818,
      "Ġhairs": 4819,
      "Ġdischarging": 4820,
      "ĠMaith": 4821,
      "ĠKaling": 4822,
      "Ġmatted": 4823,
      "ĠKausaly": 4824,
      "repress": 4825,
      "ĠVibhÄ«ÅŁaÅĨa": 4826,
      "Ġfurther": 4827,
      "Ġcostly": 4828,
      "Ġdiadem": 4829,
      "King": 4830,
      "Sauti": 4831,
      "fare": 4832,
      "oes": 4833,
      "zed": 4834,
      "Ġwished": 4835,
      "istic": 4836,
      "outhern": 4837,
      "Ġfeed": 4838,
      "Ġbere": 4839,
      "Ġshine": 4840,
      "ĠDand": 4841,
      "Ġsev": 4842,
      "alls": 4843,
      "fulness": 4844,
      "ĠVis": 4845,
      "apes": 4846,
      "Ġcontra": 4847,
      "sha": 4848,
      "Ġcopp": 4849,
      "ĠWhere": 4850,
      "Ġpossession": 4851,
      "Ġsorry": 4852,
      "ĠIndrajit": 4853,
      "Ġnorth": 4854,
      "Ġprime": 4855,
      "Ġapproved": 4856,
      "Ġteach": 4857,
      "ĠParva": 4858,
      "Ġdriven": 4859,
      "Ġsubjug": 4860,
      "ĠGoodness": 4861,
      "Ġauthor": 4862,
      "Vidura": 4863,
      ",\"": 4864,
      "Ash": 4865,
      "Listen": 4866,
      "cent": 4867,
      "ding": 4868,
      "we": 4869,
      "Ġmaternal": 4870,
      "lls": 4871,
      "tice": 4872,
      "omp": 4873,
      "ĠVali": 4874,
      "rown": 4875,
      "ĠHastinap": 4876,
      "Ġexter": 4877,
      "Ġspace": 4878,
      "ĠBhur": 4879,
      "Ġcharity": 4880,
      "Ġascend": 4881,
      "Ġfolly": 4882,
      "Ġconsiders": 4883,
      "Ġcutting": 4884,
      "ĠYojanas": 4885,
      "Ġgarland": 4886,
      "Ġfishes": 4887,
      "Ġquarter": 4888,
      "Ġinterests": 4889,
      "Ġeasily": 4890,
      "Ġwaxing": 4891,
      "Ġinhabitants": 4892,
      "Saying": 4893,
      "icted": 4894,
      "tled": 4895,
      "orous": 4896,
      "Ġdry": 4897,
      "Ġgrew": 4898,
      "owered": 4899,
      "ĠSacrifice": 4900,
      "ÄģrÄģ": 4901,
      "ĠShank": 4902,
      "irable": 4903,
      "Ġflame": 4904,
      "Ġruled": 4905,
      "Ġconsidering": 4906,
      "à¤¤": 4907,
      "à¤°": 4908,
      "Ġreciting": 4909,
      "ukra": 4910,
      "Ġornament": 4911,
      "Ġloudly": 4912,
      "ichaka": 4913,
      "Ġreflected": 4914,
      "Ġcomfort": 4915,
      "ĠMatsya": 4916,
      "Ġdeclared": 4917,
      "Ġobedient": 4918,
      "Ġplunged": 4919,
      "Ġblew": 4920,
      "Ġfemales": 4921,
      "Ġcri": 4922,
      "Ġcamp": 4923,
      "Ġlance": 4924,
      "umin": 4925,
      "udhana": 4926,
      "Ġfears": 4927,
      "Ġmount": 4928,
      "Ġenjoying": 4929,
      "Ġdivided": 4930,
      "Ġpursued": 4931,
      "Ġguise": 4932,
      "Ġminister": 4933,
      "Ġrenounced": 4934,
      "indhya": 4935,
      "Ġrecolle": 4936,
      "Ġmodest": 4937,
      "Brahma": 4938,
      "Ġclasses": 4939,
      "Ġwinged": 4940,
      "repressible": 4941,
      "had": 4942,
      "vation": 4943,
      "Ġaut": 4944,
      "orrow": 4945,
      "Ġpan": 4946,
      "Ġgamb": 4947,
      "cher": 4948,
      "iment": 4949,
      "Ġconve": 4950,
      "Ġdistingu": 4951,
      "Ġsoft": 4952,
      "Ġamiable": 4953,
      "Ġnectar": 4954,
      "rieved": 4955,
      "Ġleon": 4956,
      "ndsire": 4957,
      "ciated": 4958,
      "ahu": 4959,
      "Ġpenance": 4960,
      "Ġrepress": 4961,
      "Ġchiefs": 4962,
      "Ġtwiceborn": 4963,
      "oursing": 4964,
      "Ġoppos": 4965,
      "Ġfavourite": 4966,
      "Ġdancing": 4967,
      "Ġmisfortu": 4968,
      "Ġtrunk": 4969,
      "Ġburden": 4970,
      "Ġfolded": 4971,
      "Ġrouted": 4972,
      "inking": 4973,
      "Ġwre": 4974,
      "Ġbrings": 4975,
      "asing": 4976,
      "Ġlakes": 4977,
      "ĠSus": 4978,
      "etu": 4979,
      "udha": 4980,
      "Ġune": 4981,
      "Ġfare": 4982,
      "Ġbehalf": 4983,
      "Ġplants": 4984,
      "Ġproperty": 4985,
      "ĠSatvata": 4986,
      "Ġguil": 4987,
      "Ġexpans": 4988,
      "Ġdoubts": 4989,
      "Ġkindness": 4990,
      "Ġobservant": 4991,
      "ĠGrandsire": 4992,
      "Ġyouthful": 4993,
      "Ġvehem": 4994,
      "Ġbewailing": 4995,
      "Ġdisease": 4996,
      "ĠChedis": 4997,
      "Ġmulti": 4998,
      "Ġmillions": 4999,
      "Ġencountered": 5000,
      "Ġleonine": 5001,
      "Ag": 5002,
      "ku": 5003,
      "atra": 5004,
      "Ġcree": 5005,
      "ading": 5006,
      "Ġvel": 5007,
      "que": 5008,
      "ics": 5009,
      "ĠYayati": 5010,
      "inding": 5011,
      "Ġspacious": 5012,
      "Ġfearlessly": 5013,
      "Ġsubtile": 5014,
      "ĠUsh": 5015,
      "Ġeffor": 5016,
      "Ġreply": 5017,
      "Ġenjoyments": 5018,
      "Ġunderstood": 5019,
      "Ġsecure": 5020,
      "Ġirrepressible": 5021,
      "Ġfirmly": 5022,
      "Ġgrandsons": 5023,
      "Ġbeside": 5024,
      "Ġfortunate": 5025,
      "Knowing": 5026,
      "ĠYuyudhana": 5027,
      "Ġuntruth": 5028,
      "Markandeya": 5029,
      "ob": 5030,
      "antic": 5031,
      "ĠOr": 5032,
      "used": 5033,
      "Ġstat": 5034,
      "ĠViv": 5035,
      "Ġsprang": 5036,
      "ĠGreat": 5037,
      "Ġdownpour": 5038,
      "Ġoverp": 5039,
      "assing": 5040,
      "ĠWhile": 5041,
      "ossessed": 5042,
      "Ġcommands": 5043,
      "meared": 5044,
      "Ġinfinite": 5045,
      "Ġmeritorious": 5046,
      "ranger": 5047,
      "Ġoccur": 5048,
      "Ġchastis": 5049,
      "Ġwielders": 5050,
      "Ġobservances": 5051,
      "Ġcrossing": 5052,
      "Ġfuriously": 5053,
      "Ġextremely": 5054,
      "Ġfrequented": 5055,
      "Ġmental": 5056,
      "Ġaggrieved": 5057,
      "eers": 5058,
      "sk": 5059,
      "Ġast": 5060,
      "rec": 5061,
      "Ġsouth": 5062,
      "Ġmantras": 5063,
      "llied": 5064,
      "Ġbetide": 5065,
      "imilar": 5066,
      "Ġshown": 5067,
      "ĠKichaka": 5068,
      "Ġvali": 5069,
      "ĠVide": 5070,
      "ĠThough": 5071,
      "Ġspies": 5072,
      "oka": 5073,
      "estic": 5074,
      "urning": 5075,
      "Ġtrust": 5076,
      "Ġblame": 5077,
      "Ġsomething": 5078,
      "akshina": 5079,
      "Ġdevour": 5080,
      "ression": 5081,
      "angu": 5082,
      "Ġshowing": 5083,
      "Ġrunning": 5084,
      "Ġcontinually": 5085,
      "ĠAshvatthaman": 5086,
      "Ġtreasury": 5087,
      "\".": 5088,
      "ian": 5089,
      "ency": 5090,
      "Ġcrying": 5091,
      "Ġmast": 5092,
      "Ġlaw": 5093,
      "ravana": 5094,
      "ĠSagara": 5095,
      "aping": 5096,
      "Ġherbs": 5097,
      "ĠYudhisthira": 5098,
      "ountain": 5099,
      "ĠBrahmÄģ": 5100,
      "Ġunw": 5101,
      "Ġnether": 5102,
      "Ġnegle": 5103,
      "Ġslow": 5104,
      "athered": 5105,
      "ĠNow": 5106,
      "Ġbreak": 5107,
      "Ġsecret": 5108,
      "ĠSumantra": 5109,
      "ĠVaideh": 5110,
      "Ġmeasure": 5111,
      "Ġliberated": 5112,
      "Ġplanets": 5113,
      "ĠUttara": 5114,
      "ĠPrajapati": 5115,
      "Ġexpert": 5116,
      "Ġautum": 5117,
      ".*": 5118,
      "Pro": 5119,
      "ses": 5120,
      "Ġwinds": 5121,
      "Ġcried": 5122,
      "aneous": 5123,
      "Ġpained": 5124,
      "Ġina": 5125,
      "Ġine": 5126,
      "tell": 5127,
      "Ġdisag": 5128,
      "igned": 5129,
      "Ġcho": 5130,
      "Ġspecies": 5131,
      "Ġlean": 5132,
      "Ġprotects": 5133,
      "Ġsunk": 5134,
      "Ġdelighter": 5135,
      "Ġreturning": 5136,
      "Ġwarfare": 5137,
      "Forsooth": 5138,
      "Ġthirty": 5139,
      "ĠSumitra": 5140,
      "ĠPuru": 5141,
      "Ġlustre": 5142,
      "Ġattachments": 5143,
      "ĠVaishyas": 5144,
      "Ġsubjugated": 5145,
      "Ġtrunks": 5146,
      "Ġyellow": 5147,
      "Ġmagnanim": 5148,
      "Ġcontem": 5149,
      "Ġvaliant": 5150,
      "!'": 5151,
      ")?": 5152,
      "-'": 5153,
      "Taking": 5154,
      "bl": 5155,
      "pers": 5156,
      "inis": 5157,
      "rent": 5158,
      "istha": 5159,
      "Ġtal": 5160,
      "anks": 5161,
      "cellent": 5162,
      "Ġreward": 5163,
      "ĠPrat": 5164,
      "estructible": 5165,
      "resh": 5166,
      "Ġalmost": 5167,
      "veta": 5168,
      "icity": 5169,
      "nowned": 5170,
      "Whatever": 5171,
      "Ġregener": 5172,
      "Ġlegs": 5173,
      "Ġrepent": 5174,
      "Ġbanners": 5175,
      "Ġemin": 5176,
      "Ġshowered": 5177,
      "Ġafflic": 5178,
      "Ġinjure": 5179,
      "Ġmatters": 5180,
      "ĠVikarna": 5181,
      "Ġflag": 5182,
      "Ġarrange": 5183,
      "Ġinspired": 5184,
      "Ġbereft": 5185,
      "Pand": 5186,
      "ek": 5187,
      "yavana": 5188,
      "Ġthrew": 5189,
      "Ġfix": 5190,
      "Ġfasts": 5191,
      "ortu": 5192,
      "Ġpossible": 5193,
      "versed": 5194,
      "ĠSt": 5195,
      "ĠSini": 5196,
      "Ġseasons": 5197,
      "Ġsust": 5198,
      "Ġweight": 5199,
      "Ġexpe": 5200,
      "ĠYam": 5201,
      "ilies": 5202,
      "Ġresisted": 5203,
      "ĠTrig": 5204,
      "Ġafterwards": 5205,
      "Ġfruition": 5206,
      "Ġdivested": 5207,
      "Ġblessings": 5208,
      "Once": 5209,
      "Ġcounc": 5210,
      "Ġjuice": 5211,
      "Ġbesides": 5212,
      "Ġsatisfy": 5213,
      "Ġmusical": 5214,
      "aviour": 5215,
      "ĠVishvamitra": 5216,
      "ĠMithila": 5217,
      "ĠDvaipayana": 5218,
      "ĠKausalyÄģ": 5219,
      "Ġguilty": 5220,
      "Among": 5221,
      "Sat": 5222,
      "mÄģ": 5223,
      "Ġacted": 5224,
      "Ġfig": 5225,
      "Ġfilling": 5226,
      "Ġtrib": 5227,
      "lets": 5228,
      "iration": 5229,
      "Ġshapes": 5230,
      "ĠIkÅŁ": 5231,
      "ĠSan": 5232,
      "anded": 5233,
      "Ġseeds": 5234,
      "Ġsending": 5235,
      "harma": 5236,
      "Ġraz": 5237,
      "ĠShat": 5238,
      "ĠAndh": 5239,
      "ĠIndividual": 5240,
      "Ġprey": 5241,
      "cibly": 5242,
      "Ġpraises": 5243,
      "Ġcontented": 5244,
      "eshvara": 5245,
      "Ġhospit": 5246,
      "Formerly": 5247,
      "Ġthirteen": 5248,
      "parable": 5249,
      "Ġdifference": 5250,
      "Ġbenef": 5251,
      "Ġriders": 5252,
      "Ġeaten": 5253,
      "Ġinjun": 5254,
      "Ġrobbers": 5255,
      "Ġmarked": 5256,
      "Going": 5257,
      "ĠSavyasachin": 5258,
      "upidity": 5259,
      "ĠKinn": 5260,
      "Ġuplifted": 5261,
      "imilarly": 5262,
      "See": 5263,
      "nk": 5264,
      "viz": 5265,
      "orse": 5266,
      "Ġpear": 5267,
      "Ġrenown": 5268,
      "Ġuseless": 5269,
      "ĠPul": 5270,
      "Ġworn": 5271,
      "ĠMay": 5272,
      "Ġdepar": 5273,
      "Ġinfli": 5274,
      "Ġserved": 5275,
      "Ġpierce": 5276,
      "Ġlearnt": 5277,
      "Ġbelie": 5278,
      "Ġfiery": 5279,
      "Ġsummits": 5280,
      "Ġdamsels": 5281,
      "Ġrobes": 5282,
      "Ġrestrained": 5283,
      "Ġincluding": 5284,
      "Ġdisplayed": 5285,
      "Ġpurifying": 5286,
      "ĠLakshmana": 5287,
      "Janamejaya": 5288,
      "Ar": 5289,
      "Rama": 5290,
      "pri": 5291,
      "ution": 5292,
      "vi": 5293,
      "wa": 5294,
      "Å¿": 5295,
      "Ġsaved": 5296,
      "isana": 5297,
      "Ġpict": 5298,
      "Ġgro": 5299,
      "Ġgame": 5300,
      "Through": 5301,
      "ades": 5302,
      "aketu": 5303,
      "oday": 5304,
      "Ġdeb": 5305,
      "Ġvir": 5306,
      "Ġnotes": 5307,
      "Ġworth": 5308,
      "Ġcontain": 5309,
      "Ġmanliness": 5310,
      "Ġdism": 5311,
      "Ġsays": 5312,
      "Ġcommander": 5313,
      "uriosity": 5314,
      "Ġconversation": 5315,
      "Ġopportu": 5316,
      "Ġconstit": 5317,
      "Ġconsuming": 5318,
      "beit": 5319,
      "Ġadoration": 5320,
      "Ġcounsels": 5321,
      "ĠGanges": 5322,
      "Ġvigour": 5323,
      "ĠRÃ¥": 5324,
      "Me": 5325,
      "nity": 5326,
      "Ġfow": 5327,
      "Ġlose": 5328,
      "Ġrear": 5329,
      "irth": 5330,
      "idim": 5331,
      "ĠPu": 5332,
      "Ġmend": 5333,
      "ĠVal": 5334,
      "Ġenmity": 5335,
      "Ġupra": 5336,
      "Ġsole": 5337,
      "ĠBho": 5338,
      "Ġfail": 5339,
      "Ġclas": 5340,
      "Ġdestiny": 5341,
      "ips": 5342,
      "Ġpleasures": 5343,
      "Ġminded": 5344,
      "ĠUma": 5345,
      "ĠDevas": 5346,
      "Ġcoursing": 5347,
      "Ġimport": 5348,
      "Ġfelled": 5349,
      "Ġleads": 5350,
      "Ġparty": 5351,
      "Ġelders": 5352,
      "Ġtransg": 5353,
      "ĠLanka": 5354,
      "Ġyields": 5355,
      "Ġvisible": 5356,
      "Ġfalsehood": 5357,
      "Ġimpetuosity": 5358,
      "Ġfeathers": 5359,
      "ĠAkshau": 5360,
      "ĠHastinapur": 5361,
      "Ġregenerate": 5362,
      "Now": 5363,
      "creat": 5364,
      "dened": 5365,
      "ibh": 5366,
      "ws": 5367,
      "Ġbones": 5368,
      "Ġcuriosity": 5369,
      "Ġmist": 5370,
      "ani": 5371,
      "Ġresolution": 5372,
      "Ġforcibly": 5373,
      "Ġmeets": 5374,
      "ĠThrough": 5375,
      "astras": 5376,
      "Ġslave": 5377,
      "ĠShak": 5378,
      "istent": 5379,
      "opes": 5380,
      "Ġquite": 5381,
      "ples": 5382,
      "Ġbludge": 5383,
      "Ġswell": 5384,
      "Ġplight": 5385,
      "Ġnumbers": 5386,
      "Ġearn": 5387,
      "ristine": 5388,
      "Ġcharacteristic": 5389,
      "Ġlamentations": 5390,
      "Ġcommunicated": 5391,
      "ĠPrahasta": 5392,
      "Ġinstallation": 5393,
      "aneously": 5394,
      "Men": 5395,
      "Tell": 5396,
      "pro": 5397,
      "sue": 5398,
      "inions": 5399,
      "Ġhot": 5400,
      "Ġlist": 5401,
      "ĠSau": 5402,
      "ĠKail": 5403,
      "Ġsele": 5404,
      "Ġdesirable": 5405,
      "Ġsprink": 5406,
      "ĠNara": 5407,
      "ashed": 5408,
      "Ġkingdoms": 5409,
      "Ġencomp": 5410,
      "Ġkills": 5411,
      "who": 5412,
      "Ġimpure": 5413,
      "acy": 5414,
      "Ġornamented": 5415,
      "Ġcontrolling": 5416,
      "Ġsplendid": 5417,
      "Ġinstrument": 5418,
      "Ġharm": 5419,
      "Ġdrunk": 5420,
      "Ġfinished": 5421,
      "Ġconclusion": 5422,
      "ĠShraddha": 5423,
      "Ġmyster": 5424,
      "Ġcyc": 5425,
      "Ġfuneral": 5426,
      "ĠVaidehÄ«": 5427,
      "sl": 5428,
      "Ġcited": 5429,
      "ancy": 5430,
      "Ġdim": 5431,
      "Ġknot": 5432,
      "Ġreceiving": 5433,
      "ĠKali": 5434,
      "ĠRel": 5435,
      "ĠHidim": 5436,
      "Ġcomment": 5437,
      "umya": 5438,
      "Ġrisen": 5439,
      "ĠNila": 5440,
      "Ġaddicted": 5441,
      "ĠJamb": 5442,
      "ĠEvery": 5443,
      "rastha": 5444,
      "ĠGandh": 5445,
      "Ġrecitation": 5446,
      "Ġslender": 5447,
      "Ġprosperous": 5448,
      "Ġcease": 5449,
      "Ġevils": 5450,
      "Shiva": 5451,
      "Ġemble": 5452,
      "ĠForsooth": 5453,
      "Ġsolar": 5454,
      "Ġsaluting": 5455,
      "Ġthrowing": 5456,
      "Ġcompassion": 5457,
      "ĠRÄģká¹£asa": 5458,
      "ocity": 5459,
      "Ġstretching": 5460,
      "Ġincomparable": 5461,
      "Ġsteps": 5462,
      "Ġwithstand": 5463,
      "ĠTrigart": 5464,
      "Ġmendic": 5465,
      "fl": 5466,
      "ply": 5467,
      "whe": 5468,
      "Ġcent": 5469,
      "anwhile": 5470,
      "Ġpac": 5471,
      "itary": 5472,
      "ceans": 5473,
      "rim": 5474,
      "stra": 5475,
      "ĠPush": 5476,
      "Ġthereby": 5477,
      "Ġraged": 5478,
      "Ġrapt": 5479,
      "Ġaccents": 5480,
      "ipa": 5481,
      "akshaka": 5482,
      "Ġcommenced": 5483,
      "Ġcharioteers": 5484,
      "Ġwishing": 5485,
      "ross": 5486,
      "ĠAshva": 5487,
      "Ġsuffering": 5488,
      "Ġaccomplishment": 5489,
      "Ġgrowing": 5490,
      "Ġabandoned": 5491,
      "Ġdisregarding": 5492,
      "Ġuproot": 5493,
      "Ġenquired": 5494,
      "Ġflags": 5495,
      "Ġperpetuator": 5496,
      "Ġessence": 5497,
      "Ġsufficient": 5498,
      "coursing": 5499,
      "Ġer": 5500,
      "Ġbeds": 5501,
      "asted": 5502,
      "Ġpristine": 5503,
      "Ġinse": 5504,
      "rochana": 5505,
      "Ġbeat": 5506,
      "Ġshield": 5507,
      "Ġasso": 5508,
      "isha": 5509,
      "ĠBali": 5510,
      "Ġstands": 5511,
      "Ġherd": 5512,
      "Ġrap": 5513,
      "ĠNand": 5514,
      "Ġfalls": 5515,
      "Ġdistur": 5516,
      "Ġpasses": 5517,
      "Ġfamilies": 5518,
      "Ġsecuring": 5519,
      "Ġcurrent": 5520,
      "Ġdecor": 5521,
      "Ġdepending": 5522,
      "Ġdeserves": 5523,
      "Ġwretched": 5524,
      "ĠMaruts": 5525,
      "Ġtreated": 5526,
      "Ġfeatures": 5527,
      "Ġpenetrating": 5528,
      "Ġvulture": 5529,
      "Ġdomestic": 5530,
      "Ġsancti": 5531,
      "Ġconsoled": 5532,
      "ĠRÃ¤kÅŁasas": 5533,
      "Ġtusks": 5534,
      "Ġcranes": 5535,
      "Ġmisfortune": 5536,
      "Ġexpansive": 5537,
      "Ġdisagreeable": 5538,
      "Ġdeparture": 5539,
      "?âĢĿ": 5540,
      "Both": 5541,
      "Dis": 5542,
      "Hear": 5543,
      "ba": 5544,
      "face": 5545,
      "pa": 5546,
      "enti": 5547,
      "Ġtorn": 5548,
      "Ġcaught": 5549,
      "Ġcupidity": 5550,
      "Ġrenowned": 5551,
      "Ġvit": 5552,
      "Ġann": 5553,
      "Ġarrowy": 5554,
      "Ġrice": 5555,
      "Ġcreating": 5556,
      "Ġincon": 5557,
      "decked": 5558,
      "Ġcalm": 5559,
      "Ġcausing": 5560,
      "Ġmiserable": 5561,
      "Ġcows": 5562,
      "Ġweakness": 5563,
      "ayani": 5564,
      "Ġwashed": 5565,
      "Ġhouseholder": 5566,
      "ĠKumbhakar": 5567,
      "Ġvelocity": 5568,
      "Surely": 5569,
      "Yudhisthira": 5570,
      "coming": 5571,
      "gar": 5572,
      "host": 5573,
      "Ġthither": 5574,
      "Ġavar": 5575,
      "Ġsouled": 5576,
      "Ġlu": 5577,
      "ric": 5578,
      "avÄģn": 5579,
      "Ġnose": 5580,
      "Ġreb": 5581,
      "ĠSv": 5582,
      "ulated": 5583,
      "ĠKhara": 5584,
      "ĠRudras": 5585,
      "ighteous": 5586,
      "Ġalbeit": 5587,
      "ĠHere": 5588,
      "Ġuncon": 5589,
      "haumya": 5590,
      "Ġbehaviour": 5591,
      "Ġflight": 5592,
      "Ġincur": 5593,
      "Ġassist": 5594,
      "Ġeffect": 5595,
      "Ġlearn": 5596,
      "Ġperforms": 5597,
      "attering": 5598,
      "Ġcountless": 5599,
      "Ġhung": 5600,
      "ĠVibhisana": 5601,
      "ĠWithout": 5602,
      "Ġabstention": 5603,
      "Ġdisappear": 5604,
      "ĠSankhya": 5605,
      "ĠDurm": 5606,
      "Ġsighing": 5607,
      "Ġchange": 5608,
      "Ġjackals": 5609,
      "Ġvenom": 5610,
      "Ġslowly": 5611,
      "Con": 5612,
      "Up": 5613,
      "know": 5614,
      "this": 5615,
      "inces": 5616,
      "Ġfate": 5617,
      "aru": 5618,
      "roth": 5619,
      "Ġshout": 5620,
      "ĠKam": 5621,
      "Ġstake": 5622,
      "Ġmel": 5623,
      "ĠTheir": 5624,
      "Ġrains": 5625,
      "Ġsink": 5626,
      "Ġconsult": 5627,
      "cial": 5628,
      "bhi": 5629,
      "Ġindic": 5630,
      "ĠVrishasena": 5631,
      "Ġpunish": 5632,
      "Ġmedic": 5633,
      "Ġabandoning": 5634,
      "ĠYaksha": 5635,
      "ĠSavitri": 5636,
      "Ġfrightened": 5637,
      "Ġentertained": 5638,
      "ĠYadu": 5639,
      "gniz": 5640,
      "Ġbehoves": 5641,
      "Ġapprehe": 5642,
      "Ġmatchless": 5643,
      "Ġhomage": 5644,
      "Ġespecially": 5645,
      "tellig": 5646,
      "Ġrazor": 5647,
      ",*": 5648,
      "..": 5649,
      "Nakula": 5650,
      "kara": 5651,
      "uable": 5652,
      "Ġfed": 5653,
      "Ġfing": 5654,
      "Ġtalk": 5655,
      "orm": 5656,
      "Ġdw": 5657,
      "Ġdy": 5658,
      "Ġdied": 5659,
      "Ġpet": 5660,
      "Ġpair": 5661,
      "Ġlamp": 5662,
      "Ġeats": 5663,
      "aling": 5664,
      "alry": 5665,
      "ishnu": 5666,
      "ulent": 5667,
      "utable": 5668,
      "ĠPr": 5669,
      "Ġarch": 5670,
      "Ġamid": 5671,
      "ĠShiva": 5672,
      "Ġheroism": 5673,
      "Ġearthly": 5674,
      "Ġquant": 5675,
      "pty": 5676,
      "iksh": 5677,
      "Ġwherever": 5678,
      "Ġsurface": 5679,
      "ĠHimal": 5680,
      "Ġfuel": 5681,
      "ĠYogin": 5682,
      "Ġfifth": 5683,
      "Ġantagonist": 5684,
      "Ġcreepers": 5685,
      "Ġmagnanimous": 5686,
      "Ġpearls": 5687,
      "Acc": 5688,
      "Ġaxes": 5689,
      "Ġwroth": 5690,
      "Ġbrid": 5691,
      "enger": 5692,
      "Ġmana": 5693,
      "Ġpressed": 5694,
      "semble": 5695,
      "irya": 5696,
      "omach": 5697,
      "ĠRit": 5698,
      "Ġenough": 5699,
      "umb": 5700,
      "etting": 5701,
      "iously": 5702,
      "emb": 5703,
      "ordinary": 5704,
      "Ġspect": 5705,
      "Ġboat": 5706,
      "Ġquivers": 5707,
      "Ġfew": 5708,
      "Ġhappen": 5709,
      "ĠVasistha": 5710,
      "Ġexpi": 5711,
      "ĠVaj": 5712,
      "Ġdisposition": 5713,
      "Ġempty": 5714,
      "Ġsummer": 5715,
      "Ġsuffered": 5716,
      "Ġawful": 5717,
      "Ġawake": 5718,
      "cipation": 5719,
      "Ġgrown": 5720,
      "ĠPurusha": 5721,
      "Ġbulls": 5722,
      "Ġsatisfaction": 5723,
      "Ġprovinces": 5724,
      "Ġfragrance": 5725,
      "Ġskillful": 5726,
      "Ġexperienced": 5727,
      "Ġsolicit": 5728,
      "Ġambrosia": 5729,
      "Ġnatural": 5730,
      "Ġcouple": 5731,
      "ĠIkÅŁvÄģ": 5732,
      "Oh": 5733,
      "Ä±": 5734,
      "Ġwaves": 5735,
      "ndued": 5736,
      "atic": 5737,
      "Ġfill": 5738,
      "Ġdare": 5739,
      "Ġtom": 5740,
      "Ġbending": 5741,
      "Ġheed": 5742,
      "ĠBoth": 5743,
      "ulties": 5744,
      "Ġseas": 5745,
      "Ġstomach": 5746,
      "ĠHorse": 5747,
      "Ġsporting": 5748,
      "cries": 5749,
      "ording": 5750,
      "Ġspeaks": 5751,
      "Ġconsists": 5752,
      "ashing": 5753,
      "Ġflowing": 5754,
      "Ġsettled": 5755,
      "cribed": 5756,
      "Ġcalf": 5757,
      "Ġattended": 5758,
      "Although": 5759,
      "Ġwelcome": 5760,
      "Ġincreased": 5761,
      "Ġlamenting": 5762,
      "Ġinjured": 5763,
      "Ġconqueror": 5764,
      "Ġwandering": 5765,
      "Ġunfair": 5766,
      "Regarding": 5767,
      "Ġsanction": 5768,
      "Ġclub": 5769,
      "Ġgrasp": 5770,
      "Ġattendants": 5771,
      "iÅŁtha": 5772,
      "ĠMatali": 5773,
      "Ġoverpowered": 5774,
      "Ġcommentator": 5775,
      "da": 5776,
      "hot": 5777,
      "human": 5778,
      "kind": 5779,
      "oll": 5780,
      "sum": 5781,
      "uya": 5782,
      "wish": 5783,
      "thi": 5784,
      "Ġoceans": 5785,
      "Ġdance": 5786,
      "Ġbells": 5787,
      "tially": 5788,
      "ott": 5789,
      "Ġdemon": 5790,
      "ĠAj": 5791,
      "Ġsports": 5792,
      "ĠShuka": 5793,
      "Ġcreates": 5794,
      "Ġresults": 5795,
      "rishik": 5796,
      "Ġende": 5797,
      "Ġundergo": 5798,
      "ushika": 5799,
      "Ġsometime": 5800,
      "Ġrelations": 5801,
      "Ġcontent": 5802,
      "uki": 5803,
      "ceivable": 5804,
      "Ġconsequences": 5805,
      "Ġdifficulties": 5806,
      "Ġcheerless": 5807,
      "Ġpainful": 5808,
      "ĠAdh": 5809,
      "Ġstead": 5810,
      "Ġrepairing": 5811,
      "Ġwander": 5812,
      "Ġvehicles": 5813,
      "Ġdemons": 5814,
      "ĠRenunciation": 5815,
      "ĠMaithili": 5816,
      "Sur": 5817,
      "co": 5818,
      "dana": 5819,
      "ether": 5820,
      "lies": 5821,
      "mi": 5822,
      "nat": 5823,
      "rs": 5824,
      "rata": 5825,
      "atis": 5826,
      "Ġiniti": 5827,
      "Ġinex": 5828,
      "Ġeul": 5829,
      "chan": 5830,
      "Ġshines": 5831,
      "ote": 5832,
      "amas": 5833,
      "Ġsets": 5834,
      "Ġalt": 5835,
      "ructive": 5836,
      "ifying": 5837,
      "ĠGav": 5838,
      "ĠShudras": 5839,
      "ĠShveta": 5840,
      "aths": 5841,
      "Ġroared": 5842,
      "uresque": 5843,
      "ensible": 5844,
      "Ġflo": 5845,
      "ĠJa": 5846,
      "ĠEternal": 5847,
      "Ġintended": 5848,
      "ĠVasiÅŁtha": 5849,
      "ĠParthas": 5850,
      "Ġceased": 5851,
      "Ġsixth": 5852,
      "Ġencountering": 5853,
      "ĠSomakas": 5854,
      "Ġsimult": 5855,
      "Ġcrushing": 5856,
      "Ġrescued": 5857,
      "Ġsteady": 5858,
      "ĠManes": 5859,
      "Ġcomforted": 5860,
      "ĠMandara": 5861,
      "ĠBrÄģhmaá¹ĩa": 5862,
      "tivity": 5863,
      "Ġconnection": 5864,
      "Ġsummoned": 5865,
      "Ġparents": 5866,
      "ĠRelig": 5867,
      "Ġendeav": 5868,
      "ait": 5869,
      "fying": 5870,
      "ience": 5871,
      "tas": 5872,
      "Ġom": 5873,
      "Ġwine": 5874,
      "Ġhips": 5875,
      "Ġoften": 5876,
      "atory": 5877,
      "enances": 5878,
      "Ġdame": 5879,
      "Ġinform": 5880,
      "irited": 5881,
      "ĠSee": 5882,
      "odes": 5883,
      "ĠKra": 5884,
      "ĠKambo": 5885,
      "ĠAp": 5886,
      "ĠMal": 5887,
      "Ġshoulders": 5888,
      "athing": 5889,
      "rita": 5890,
      "Ġaddress": 5891,
      "dually": 5892,
      "acle": 5893,
      "Ġsuperiors": 5894,
      "Ġsurrounding": 5895,
      "Ġhorsemen": 5896,
      "Ġrainy": 5897,
      "Ġforgive": 5898,
      "Ġrescu": 5899,
      "ĠAtri": 5900,
      "Ġrequest": 5901,
      "Ġadopted": 5902,
      "Ġblossoms": 5903,
      "Ġerect": 5904,
      "Ġgardens": 5905,
      "Ġconcentrated": 5906,
      "Ġbrilliant": 5907,
      "Ġextraordinary": 5908,
      "alutations": 5909,
      "Ġdisguise": 5910,
      "gnizant": 5911,
      "Hanum": 5912,
      "ead": 5913,
      "oint": 5914,
      "tav": 5915,
      "ricken": 5916,
      "Ġrender": 5917,
      "akarna": 5918,
      "Ġallow": 5919,
      "ersons": 5920,
      "Ġexpect": 5921,
      "Ġrangers": 5922,
      "ĠShastras": 5923,
      "Ġundert": 5924,
      "amedha": 5925,
      "Ġinnoc": 5926,
      "Ġdrinks": 5927,
      "Ġoccasions": 5928,
      "Ġfeelings": 5929,
      "Ġinclined": 5930,
      "Ġvaluable": 5931,
      "Ġfatigued": 5932,
      "Ġstretched": 5933,
      "Ġemitting": 5934,
      "Ġmessenger": 5935,
      "Ġinfuriate": 5936,
      "Ġemployed": 5937,
      "ĠVinata": 5938,
      "Ġseventy": 5939,
      "Ġemblem": 5940,
      "Bri": 5941,
      "Is": 5942,
      "Kunti": 5943,
      "Ġses": 5944,
      "Ġhorns": 5945,
      "erily": 5946,
      "Ġta": 5947,
      "Ġtied": 5948,
      "Ġredd": 5949,
      "cho": 5950,
      "ĠSth": 5951,
      "ĠKusha": 5952,
      "Ġvice": 5953,
      "Ġarise": 5954,
      "icide": 5955,
      "ĠHrishik": 5956,
      "iffere": 5957,
      "ĠMind": 5958,
      "Ġmanifest": 5959,
      "Ġperv": 5960,
      "arting": 5961,
      "Ġintox": 5962,
      "Ġblameless": 5963,
      "Ġswall": 5964,
      "Ġusual": 5965,
      "Ġskies": 5966,
      "Ġdescended": 5967,
      "Ġplant": 5968,
      "Ġproperties": 5969,
      "hee": 5970,
      "Ġbirths": 5971,
      "luence": 5972,
      "Ġrenunciation": 5973,
      "Shakuni": 5974,
      "Ġassume": 5975,
      "Ġwielding": 5976,
      "Ġextensive": 5977,
      "Ġseparated": 5978,
      "Ġseparately": 5979,
      "Ġfrightful": 5980,
      "Ġgoverned": 5981,
      "Ġexplain": 5982,
      "Ġpropor": 5983,
      "Ġextending": 5984,
      "Ġtowns": 5985,
      "ĠNaga": 5986,
      "Ġpeacocks": 5987,
      "Ġcavalry": 5988,
      "Ġextermin": 5989,
      "Ġstatus": 5990,
      "Ġtribes": 5991,
      "Ġpicturesque": 5992,
      "Ġlux": 5993,
      "ians": 5994,
      "inity": 5995,
      "Ġhaw": 5996,
      "Ġhopes": 5997,
      "itations": 5998,
      "riv": 5999,
      "Ġreap": 6000,
      "Ġreins": 6001,
      "aku": 6002,
      "ĠAb": 6003,
      "ĠAm": 6004,
      "ĠAti": 6005,
      "Their": 6006,
      "utta": 6007,
      "Ġactivity": 6008,
      "Ġforehead": 6009,
      "Ġdesist": 6010,
      "ĠMany": 6011,
      "Ġcarwarrior": 6012,
      "Ġagree": 6013,
      "Ġrav": 6014,
      "vable": 6015,
      "Ġcognizant": 6016,
      "lessed": 6017,
      "Ġregained": 6018,
      "Ġresist": 6019,
      "Ġcompre": 6020,
      "Ġattainment": 6021,
      "Ġdistribut": 6022,
      "ĠSatrughna": 6023,
      "Ġjus": 6024,
      "Ġsecured": 6025,
      "Ġvanity": 6026,
      "ambusha": 6027,
      "Ġfrag": 6028,
      "Ġsuffers": 6029,
      "Ġairs": 6030,
      "Ġprevented": 6031,
      "Ġreaching": 6032,
      "arshana": 6033,
      "ĠShraddhas": 6034,
      "ĠShalva": 6035,
      "Ġhymns": 6036,
      "ĠRajasuya": 6037,
      "Ġconstellation": 6038,
      "Ġhospitality": 6039,
      "ĠKinnaras": 6040,
      "eople": 6041,
      "hil": 6042,
      "iance": 6043,
      "phants": 6044,
      "spe": 6045,
      "tc": 6046,
      "then": 6047,
      "thama": 6048,
      "Ġless": 6049,
      "let": 6050,
      "ulting": 6051,
      "Ġliqu": 6052,
      "Ġdestructive": 6053,
      "Ġreser": 6054,
      "Ġeleven": 6055,
      "Ġtimid": 6056,
      "ĠTakshaka": 6057,
      "rounded": 6058,
      "Ġskins": 6059,
      "Ġcontact": 6060,
      "Ġeffe": 6061,
      "Ġencamp": 6062,
      "ĠMaheshvara": 6063,
      "Ġaffected": 6064,
      "Ġinsulted": 6065,
      "ĠAdityas": 6066,
      "ĠVÄģl": 6067,
      "Ġprevent": 6068,
      "Ġimmortal": 6069,
      "ĠMatsyas": 6070,
      "ooking": 6071,
      "ĠDasharha": 6072,
      "Ġsmitten": 6073,
      "Ġcensure": 6074,
      "ĠKapila": 6075,
      "ĠVideha": 6076,
      "Ġinaccess": 6077,
      "Ġcontempl": 6078,
      "Ġpetals": 6079,
      "Ġsimultaneously": 6080,
      "ĠReligion": 6081,
      ".-": 6082,
      "fer": 6083,
      "ffli": 6084,
      "hall": 6085,
      "iet": 6086,
      "Ġsouthern": 6087,
      "Ġbatt": 6088,
      "asm": 6089,
      "itating": 6090,
      "Ġeast": 6091,
      "Ġsuitable": 6092,
      "ĠPun": 6093,
      "estroy": 6094,
      "harata": 6095,
      "ĠHir": 6096,
      "ĠMain": 6097,
      "Ġregaining": 6098,
      "Ġcharge": 6099,
      "arent": 6100,
      "Ġours": 6101,
      "Ġhumble": 6102,
      "Ġjudge": 6103,
      "Ġsixteen": 6104,
      "Ġcelebrating": 6105,
      "Ġassumes": 6106,
      "Ġlistening": 6107,
      "Ġsmiles": 6108,
      "ĠAshvins": 6109,
      "Ġaffairs": 6110,
      "Ġrecogn": 6111,
      "Ġreflecting": 6112,
      "Ġdespatched": 6113,
      "ĠYogins": 6114,
      "Ġwalking": 6115,
      "Vasudeva": 6116,
      "Ġmortal": 6117,
      "Ġhostility": 6118,
      "Ġremoving": 6119,
      "Ġgambling": 6120,
      "Ġautumnal": 6121,
      "Ġupraised": 6122,
      "Ġclasped": 6123,
      "Ġknots": 6124,
      "Ġunconqu": 6125,
      "Ġinnocent": 6126,
      "Ġinaccessible": 6127,
      "Neither": 6128,
      "Yayati": 6129,
      "ctic": 6130,
      "Ã±": 6131,
      "Ġhit": 6132,
      "Ġtail": 6133,
      "Ġtanks": 6134,
      "Ġwid": 6135,
      "Ġlun": 6136,
      "Ġlower": 6137,
      "Ġlangu": 6138,
      "Ġetc": 6139,
      "Ġresemble": 6140,
      "Ġallies": 6141,
      "Ġdearer": 6142,
      "Ġstaff": 6143,
      "Ġmemb": 6144,
      "vail": 6145,
      "asty": 6146,
      "artana": 6147,
      "Ġbehave": 6148,
      "Ġflow": 6149,
      "Ġprecep": 6150,
      "Ġcommits": 6151,
      "Ġindiffere": 6152,
      "Ġinvited": 6153,
      "Ġdevote": 6154,
      "Ġlighted": 6155,
      "Ġdirect": 6156,
      "Ġwaist": 6157,
      "reta": 6158,
      "Ġopposed": 6159,
      "Ġcalamities": 6160,
      "ĠArgh": 6161,
      "Ġgladly": 6162,
      "Ġvisit": 6163,
      "Ġbewailed": 6164,
      "Ġadopt": 6165,
      "Ġsimilarly": 6166,
      "Ġnarrated": 6167,
      "ĠUnmanifest": 6168,
      "Ġlaughing": 6169,
      "Ġtrouble": 6170,
      "aptakas": 6171,
      "Ġblossoming": 6172,
      "Ġvillages": 6173,
      "Ġperfumes": 6174,
      "Ġphysical": 6175,
      "ĠSurya": 6176,
      "ĠDandaka": 6177,
      "Ġmodesty": 6178,
      "Ġpanic": 6179,
      "Ġopportunity": 6180,
      "Ġdecorated": 6181,
      "Ġinconceivable": 6182,
      "ighteousness": 6183,
      "Ġeulog": 6184,
      "!-": 6185,
      "Every": 6186,
      "ares": 6187,
      "lied": 6188,
      "Ġwounds": 6189,
      "ert": 6190,
      "Ġbig": 6191,
      "oned": 6192,
      "Ġcu": 6193,
      "orough": 6194,
      "avan": 6195,
      "Ġshaking": 6196,
      "Ġshaken": 6197,
      "ĠSaying": 6198,
      "ĠSacrifices": 6199,
      "ĠKund": 6200,
      "ĠKanka": 6201,
      "ĠDhaumya": 6202,
      "Ġstro": 6203,
      "Ġwear": 6204,
      "Ġprost": 6205,
      "tedly": 6206,
      "Ġunknown": 6207,
      "Ġcharged": 6208,
      "Ġpeaks": 6209,
      "ĠSura": 6210,
      "Ġindestructible": 6211,
      "Ġdefeating": 6212,
      "ĠChitra": 6213,
      "ĠChyavana": 6214,
      "Ġglo": 6215,
      "Ġconsequent": 6216,
      "Ġtender": 6217,
      "Ġconquering": 6218,
      "Ġdeserving": 6219,
      "Ġtruthfulness": 6220,
      "Ġcheck": 6221,
      "Ġprinciples": 6222,
      "Ġarranged": 6223,
      "ĠShrutis": 6224,
      "Ġfortnight": 6225,
      "Ġsprinkled": 6226,
      "Ġprecepts": 6227,
      "eter": 6228,
      "iate": 6229,
      "lada": 6230,
      "Ġoil": 6231,
      "restra": 6232,
      "Ġoffe": 6233,
      "Ġema": 6234,
      "imit": 6235,
      "Ġstain": 6236,
      "ĠPish": 6237,
      "Ġalms": 6238,
      "Ġherds": 6239,
      "illity": 6240,
      "ĠMen": 6241,
      "Ġchant": 6242,
      "Ġunb": 6243,
      "Ġunh": 6244,
      "Ġcoat": 6245,
      "ustom": 6246,
      "Ġgoodness": 6247,
      "Ġswear": 6248,
      "ĠCons": 6249,
      "Ġprescribed": 6250,
      "Ġdevoured": 6251,
      "Ġproduces": 6252,
      "suing": 6253,
      "Ġabstain": 6254,
      "Ġoblig": 6255,
      "amadana": 6256,
      "Ġtroubles": 6257,
      "Ġsituated": 6258,
      "ĠViÅŁnu": 6259,
      "Ġpiteously": 6260,
      "Ġvehemence": 6261,
      "ĠHidimba": 6262,
      "Upon": 6263,
      "Ġreddened": 6264,
      "?'": 6265,
      "Lomasha": 6266,
      "Not": 6267,
      "bled": 6268,
      "gg": 6269,
      "lasting": 6270,
      "sight": 6271,
      "Ðŀ": 6272,
      "Ġ.": 6273,
      "ĠÐŀ": 6274,
      "Ġthorough": 6275,
      "Ġsad": 6276,
      "Ġpup": 6277,
      "Ġgrim": 6278,
      "tial": 6279,
      "Ġrent": 6280,
      "ĠKek": 6281,
      "Ġanni": 6282,
      "Ġgreatness": 6283,
      "ump": 6284,
      "iles": 6285,
      "ouncing": 6286,
      "Ġraising": 6287,
      "ung": 6288,
      "achi": 6289,
      "ĠShukra": 6290,
      "Ġresounding": 6291,
      "Ġstrewn": 6292,
      "Ġcommon": 6293,
      "Ġdepri": 6294,
      "arka": 6295,
      "Ġwond": 6296,
      "Ġhole": 6297,
      "Ġworshipp": 6298,
      "Ġservant": 6299,
      "Ġinstructed": 6300,
      "Ġslaughtering": 6301,
      "Ġinsult": 6302,
      "ĠKnowing": 6303,
      "Ġbewild": 6304,
      "ĠNishadhas": 6305,
      "ĠGangÄģ": 6306,
      "Dev": 6307,
      "Ġscorcher": 6308,
      "Ġsyst": 6309,
      "ĠRÄĥma": 6310,
      "Ġdeliver": 6311,
      "Ġwhirling": 6312,
      "Ġenvy": 6313,
      "Ġaffliction": 6314,
      "Ġvitals": 6315,
      "ĠKumbhakarÅĨa": 6316,
      "Ġhungry": 6317,
      "Ġquantity": 6318,
      "Ġinexhaus": 6319,
      "Ġrescuing": 6320,
      "Ġannihil": 6321,
      "Ravana": 6322,
      "jana": 6323,
      "nasty": 6324,
      "rÄ«": 6325,
      "Ġwalk": 6326,
      "atrughna": 6327,
      "aratk": 6328,
      "Ġtir": 6329,
      "Ġcattle": 6330,
      "Ġnon": 6331,
      "adhara": 6332,
      "Ġheaps": 6333,
      "ĠBah": 6334,
      "ĠKo": 6335,
      "ĠKhand": 6336,
      "ĠPin": 6337,
      "Äģl": 6338,
      "ĠVayu": 6339,
      "Ġupwards": 6340,
      "indu": 6341,
      "ĠBhava": 6342,
      "ĠShini": 6343,
      "Ġnoose": 6344,
      "upa": 6345,
      "ĠEn": 6346,
      "Ġgradually": 6347,
      "Ġappla": 6348,
      "Ġscimit": 6349,
      "Ġhumbly": 6350,
      "Ġconfounded": 6351,
      "Ġguide": 6352,
      "Ġglorious": 6353,
      "ĠVais": 6354,
      "Ġgarments": 6355,
      "Ġconcili": 6356,
      "Ġconstantly": 6357,
      "Ġgaining": 6358,
      "Ġtorto": 6359,
      "Ġvalour": 6360,
      "work": 6361,
      "Ġforsake": 6362,
      "Ġcrem": 6363,
      "rada": 6364,
      "Ġefforts": 6365,
      "wheels": 6366,
      "fflicted": 6367,
      "aratkaru": 6368,
      ",âĢĶ": 6369,
      "gone": 6370,
      "oqu": 6371,
      "Ġwol": 6372,
      "Ġsus": 6373,
      "Ġhide": 6374,
      "araka": 6375,
      "oral": 6376,
      "Ġdin": 6377,
      "Ġdig": 6378,
      "Ġdried": 6379,
      "itate": 6380,
      "Ġgem": 6381,
      "Ġlosing": 6382,
      "ĠOthers": 6383,
      "Ġsafe": 6384,
      "ĠDar": 6385,
      "ĠAru": 6386,
      "Ġexam": 6387,
      "Ġdispe": 6388,
      "emember": 6389,
      "Ġrattle": 6390,
      "Ġobey": 6391,
      "Ġreside": 6392,
      "Ġatten": 6393,
      "Ġheavenly": 6394,
      "Ġimpar": 6395,
      "auspicious": 6396,
      "Ġparties": 6397,
      "Ġsinging": 6398,
      "Ġdrop": 6399,
      "Ġstudied": 6400,
      "Ġesp": 6401,
      "Ġfruitless": 6402,
      "Ġordinary": 6403,
      "alguni": 6404,
      "Bhimasena": 6405,
      "Ġbreathing": 6406,
      "Ġbehoof": 6407,
      "dyumna": 6408,
      "Ġdishon": 6409,
      "Again": 6410,
      "Ġvirulent": 6411,
      "ĠKailasa": 6412,
      "ĠGandhamadana": 6413,
      "Ġrapid": 6414,
      "Ġsanctioned": 6415,
      "tavakra": 6416,
      "Ġfragments": 6417,
      "Ġinexhaustible": 6418,
      ":-": 6419,
      "vash": 6420,
      "Ġaqu": 6421,
      "Ġhat": 6422,
      "Ġcaves": 6423,
      "Ġdren": 6424,
      "itual": 6425,
      "tily": 6426,
      "idable": 6427,
      "omen": 6428,
      "ĠKrish": 6429,
      "keya": 6430,
      "Ġstar": 6431,
      "ĠPa": 6432,
      "Äģra": 6433,
      "Äģna": 6434,
      "Ġmete": 6435,
      "Ġworst": 6436,
      "ilt": 6437,
      "Ġfailed": 6438,
      "Ġquiet": 6439,
      "ushed": 6440,
      "Ġprepar": 6441,
      "Ġincess": 6442,
      "Ġpossesses": 6443,
      "atiated": 6444,
      "mitted": 6445,
      "à¤¿": 6446,
      "Ġimpossible": 6447,
      "arashara": 6448,
      "Ġturning": 6449,
      "Ġtrack": 6450,
      "ĠVibhatsu": 6451,
      "Ġforgiving": 6452,
      "Ġinfluenced": 6453,
      "Ġseparation": 6454,
      "ourable": 6455,
      "Ġtorrents": 6456,
      "ĠProfit": 6457,
      "Ġdense": 6458,
      "Ġmystery": 6459,
      "Ġprogen": 6460,
      "Ġdebt": 6461,
      "Ġmysteries": 6462,
      "Ġsanctified": 6463,
      "Ġdynasty": 6464,
      "hotra": 6465,
      "Ġsesame": 6466,
      "ĠHrishikesha": 6467,
      "Others": 6468,
      "car": 6469,
      "ige": 6470,
      "ki": 6471,
      "mpt": 6472,
      "rance": 6473,
      "Ġwed": 6474,
      "Ġhaught": 6475,
      "Ġbank": 6476,
      "Ġtank": 6477,
      "race": 6478,
      "tikeya": 6479,
      "ĠSabha": 6480,
      "Ġliked": 6481,
      "ĠKus": 6482,
      "pend": 6483,
      "ĠHrid": 6484,
      "Ġuphold": 6485,
      "ĠYav": 6486,
      "udh": 6487,
      "Ġhaste": 6488,
      "Ġdownwards": 6489,
      "Ġbehest": 6490,
      "Ġswan": 6491,
      "Ġeyed": 6492,
      "Ġsubst": 6493,
      "Ġterrit": 6494,
      "Ġattribute": 6495,
      "à¤µ": 6496,
      "Ġgrateful": 6497,
      "Ġguided": 6498,
      "Ġspeeches": 6499,
      "Ġranger": 6500,
      "Ġtrave": 6501,
      "Ġachieving": 6502,
      "Ġmouths": 6503,
      "Ġincreasing": 6504,
      "Ġabstaining": 6505,
      "Ġshook": 6506,
      "Ġfasting": 6507,
      "Ġnews": 6508,
      "Ġlaughed": 6509,
      "Ġdiseases": 6510,
      "Ġindulge": 6511,
      "Ġtranquillity": 6512,
      "Ġconnected": 6513,
      "Ġtempest": 6514,
      "Ġovertaken": 6515,
      "Ġemancipation": 6516,
      "ĠMagadha": 6517,
      "Ġconvey": 6518,
      "Ġomens": 6519,
      "Ġcontemplation": 6520,
      "Ġunconquerable": 6521,
      "ĠArghya": 6522,
      "paka": 6523,
      "Ġow": 6524,
      "Ġhanging": 6525,
      "Ġtribute": 6526,
      "Ġmut": 6527,
      "asi": 6528,
      "Ġgig": 6529,
      "Ġbeast": 6530,
      "rily": 6531,
      "Ġretired": 6532,
      "Ġheap": 6533,
      "ĠSatt": 6534,
      "Ġvic": 6535,
      "ĠDw": 6536,
      "utsu": 6537,
      "ĠMaya": 6538,
      "ivered": 6539,
      "Ġunp": 6540,
      "Ġabodes": 6541,
      "Ġclosed": 6542,
      "Ġboast": 6543,
      "Ġpeer": 6544,
      "Ġdevice": 6545,
      "verses": 6546,
      "Ġsmile": 6547,
      "ĠSatyavati": 6548,
      "Ġblazed": 6549,
      "ĠAlambusha": 6550,
      "Ġreverend": 6551,
      "Ġdragging": 6552,
      "Ġcrooked": 6553,
      "ĠBalhika": 6554,
      "Ġgreet": 6555,
      "Ġvessels": 6556,
      "Ġdresses": 6557,
      "Ġperpetrated": 6558,
      "Ġquarrel": 6559,
      "Ġrepressor": 6560,
      "ĠPulastya": 6561,
      "create": 6562,
      "Ġavarice": 6563,
      "ikshit": 6564,
      "ĠIkÅŁvÄģku": 6565,
      "Ġgigantic": 6566,
      "!\"": 6567,
      "Agni": 6568,
      "Qu": 6569,
      "Ut": 6570,
      "ai": 6571,
      "bing": 6572,
      "hension": 6573,
      "leness": 6574,
      "mory": 6575,
      "sc": 6576,
      "wo": 6577,
      "Ã¡": 6578,
      "Ġaid": 6579,
      "Ġhidden": 6580,
      "Ġdressed": 6581,
      "Ġpity": 6582,
      "Ġinauspicious": 6583,
      "iter": 6584,
      "akh": 6585,
      "ĠSp": 6586,
      "andi": 6587,
      "Ġve": 6588,
      "Ġanch": 6589,
      "Ġwept": 6590,
      "Ġprove": 6591,
      "Ġdesiring": 6592,
      "ĠMuni": 6593,
      "Ġcarna": 6594,
      "Ġadmin": 6595,
      "Ġsped": 6596,
      "igious": 6597,
      "Ġpersec": 6598,
      "rief": 6599,
      "Ġroad": 6600,
      "Ġregain": 6601,
      "avasu": 6602,
      "ashes": 6603,
      "Ġfeels": 6604,
      "Ġpeak": 6605,
      "ĠThereafter": 6606,
      "ailing": 6607,
      "ĠUr": 6608,
      "Ġnorthern": 6609,
      "Ġimprec": 6610,
      "Ġsubjection": 6611,
      "luka": 6612,
      "Ġslept": 6613,
      "ĠBrahmanicide": 6614,
      "Ġmiseries": 6615,
      "Ġconsideration": 6616,
      "Ġtransp": 6617,
      "Ġwelcom": 6618,
      "Ġfeeling": 6619,
      "Ġcircle": 6620,
      "Ġadoring": 6621,
      "Ġcherished": 6622,
      "Ġbride": 6623,
      "Ġstupef": 6624,
      "Ġburst": 6625,
      "Ġactuated": 6626,
      "Ġconcealed": 6627,
      "Ġrejoiced": 6628,
      "Ġaston": 6629,
      "Ab": 6630,
      "Ad": 6631,
      "Since": 6632,
      "five": 6633,
      "gant": 6634,
      "rank": 6635,
      "rised": 6636,
      "vol": 6637,
      "Ġthread": 6638,
      "Ġwake": 6639,
      "Ġbare": 6640,
      "Ġtrying": 6641,
      "Ġtrid": 6642,
      "asÄ«": 6643,
      "rava": 6644,
      "Ġnails": 6645,
      "Ġisland": 6646,
      "stal": 6647,
      "Ġaspect": 6648,
      "Ġdeal": 6649,
      "ĠDiv": 6650,
      "ĠDaksha": 6651,
      "Ġstop": 6652,
      "Ġmemory": 6653,
      "Ġalight": 6654,
      "pets": 6655,
      "ruly": 6656,
      "Ġextingu": 6657,
      "ife": 6658,
      "Ġagre": 6659,
      "Ġrad": 6660,
      "Ġroom": 6661,
      "cending": 6662,
      "Ġeverlasting": 6663,
      "Ġgrind": 6664,
      "serving": 6665,
      "Ġscattering": 6666,
      "Ġthinks": 6667,
      "Ġsharpness": 6668,
      "ceives": 6669,
      "Shalya": 6670,
      "Ġcompleted": 6671,
      "idding": 6672,
      "Ġextent": 6673,
      "Ġjeal": 6674,
      "ĠAshvamedha": 6675,
      "Ġfinal": 6676,
      "ĠBehold": 6677,
      "Ġexperience": 6678,
      "Ġdeclare": 6679,
      "cerity": 6680,
      "Ġsorely": 6681,
      "Ġguarded": 6682,
      "Ġdeceitful": 6683,
      "Ġexercised": 6684,
      "ĠCharanas": 6685,
      "Ġorgans": 6686,
      "Ġexclaimed": 6687,
      "Ġchastisement": 6688,
      "Ġlistened": 6689,
      "Ġaltar": 6690,
      "Ġjustice": 6691,
      "Ġemaciated": 6692,
      "ĠHridika": 6693,
      "During": 6694,
      "Similarly": 6695,
      "cry": 6696,
      "iqu": 6697,
      "mm": 6698,
      "zing": 6699,
      "thus": 6700,
      "reg": 6701,
      "Ġward": 6702,
      "Ġhes": 6703,
      "Ġbree": 6704,
      "Ġbark": 6705,
      "Ġtread": 6706,
      "Ġnaked": 6707,
      "alava": 6708,
      "irasa": 6709,
      "ĠIsh": 6710,
      "Ġforin": 6711,
      "ersed": 6712,
      "Ġalas": 6713,
      "Ġwilling": 6714,
      "ighly": 6715,
      "Ġspl": 6716,
      "ĠRÄģks": 6717,
      "ĠGifted": 6718,
      "Ġunm": 6719,
      "Ġunmanifest": 6720,
      "Ġunworthy": 6721,
      "Ġresid": 6722,
      "Ġbegin": 6723,
      "Ġmoves": 6724,
      "Ġoverth": 6725,
      "anasth": 6726,
      "leasure": 6727,
      "riti": 6728,
      "Ġswoon": 6729,
      "Ġpregn": 6730,
      "Ġusing": 6731,
      "Ġresembles": 6732,
      "resses": 6733,
      "à¤¨": 6734,
      "à¤¯": 6735,
      "à¤Ĥ": 6736,
      "Ġbreaking": 6737,
      "izon": 6738,
      "Ġexpiration": 6739,
      "Ġexistent": 6740,
      "Ġhorizon": 6741,
      "Ġconstructed": 6742,
      "Ġsalvation": 6743,
      "Ġcloths": 6744,
      "Ġsolitary": 6745,
      "ĠKrita": 6746,
      "ÈĻi": 6747,
      "Ġgains": 6748,
      "Ġsatisfying": 6749,
      "Ġtorment": 6750,
      "ĠSharad": 6751,
      "ĠKalingas": 6752,
      "Ġcoppery": 6753,
      "ĠYamuna": 6754,
      "Ġbludgeons": 6755,
      "ĠAshvathama": 6756,
      "Ġbridge": 6757,
      "Ġbewildered": 6758,
      "Ġaquatic": 6759,
      "Coming": 6760,
      "Filled": 6761,
      "Today": 6762,
      "great": 6763,
      "vity": 6764,
      "Ġ2": 6765,
      "thar": 6766,
      "Ġthro": 6767,
      "Ġama": 6768,
      "inct": 6769,
      "Ġsaving": 6770,
      "Ġsatiated": 6771,
      "Ġtall": 6772,
      "Ġcul": 6773,
      "Ġming": 6774,
      "Ġmouse": 6775,
      "Ġpill": 6776,
      "Ġpairs": 6777,
      "Ġgates": 6778,
      "Thinking": 6779,
      "ĠKad": 6780,
      "ĠAk": 6781,
      "ruck": 6782,
      "Ġdoor": 6783,
      "Ġrises": 6784,
      "Ġcoats": 6785,
      "arta": 6786,
      "Ġspecially": 6787,
      "ĠloO": 6788,
      "ĠCon": 6789,
      "Ġpossessions": 6790,
      "Ġremn": 6791,
      "Ġrememb": 6792,
      "angas": 6793,
      "ĠVasuki": 6794,
      "ĠKshetra": 6795,
      "Ġrepres": 6796,
      "Ġburns": 6797,
      "Ġutmost": 6798,
      "Ġsorrows": 6799,
      "Ġconfusion": 6800,
      "Ġbreasts": 6801,
      "Ġresting": 6802,
      "Ġrespectfully": 6803,
      "ffal": 6804,
      "Ġdispatched": 6805,
      "Ġclever": 6806,
      "Ġservices": 6807,
      "Ġaccepting": 6808,
      "Ġdisregarded": 6809,
      "ĠVikartana": 6810,
      "Ġmansions": 6811,
      "Ġumbrellas": 6812,
      "Ġmortals": 6813,
      "Ġinfuriated": 6814,
      "Ġjumped": 6815,
      "ĠShankara": 6816,
      "ĠUshanas": 6817,
      "Ġarrangements": 6818,
      "Saty": 6819,
      "Meanwhile": 6820,
      "Ġtomorrow": 6821,
      "fety": 6822,
      "oly": 6823,
      "ink": 6824,
      "Ġomn": 6825,
      "Ġsang": 6826,
      "Ġbened": 6827,
      "Ġcam": 6828,
      "asis": 6829,
      "Ġye": 6830,
      "avrata": 6831,
      "Ġasking": 6832,
      "Ġsafety": 6833,
      "Ġvom": 6834,
      "ĠDus": 6835,
      "ĠDiti": 6836,
      "Ġstol": 6837,
      "ighty": 6838,
      "Ġupper": 6839,
      "Ġtherewith": 6840,
      "tected": 6841,
      "oking": 6842,
      "Ġneigh": 6843,
      "Ġperceived": 6844,
      "Ġbegged": 6845,
      "Ġsubtle": 6846,
      "ĠChe": 6847,
      "Ġincar": 6848,
      "Ġpractic": 6849,
      "bhas": 6850,
      "Ġappoint": 6851,
      "anges": 6852,
      "Ġtruths": 6853,
      "Ġhumili": 6854,
      "ĠMahodara": 6855,
      "Ġcareful": 6856,
      "Ġexisting": 6857,
      "Ġconcer": 6858,
      "ĠAngirasa": 6859,
      "Ġattempt": 6860,
      "ĠOnly": 6861,
      "Ġpalaces": 6862,
      "ĠMarutta": 6863,
      "Ġadorable": 6864,
      "Ġintentions": 6865,
      "Ġadopting": 6866,
      "Ġcrops": 6867,
      "ĠAshvatthama": 6868,
      "Ġachievements": 6869,
      "Ġemitted": 6870,
      "Ġpropitiated": 6871,
      "Ġadversary": 6872,
      "ĠGuha": 6873,
      "Ġinjunctions": 6874,
      "Ġcycle": 6875,
      "Ġmembers": 6876,
      "cat": 6877,
      "four": 6878,
      "sa": 6879,
      "Ġmand": 6880,
      "Ġlumin": 6881,
      "ley": 6882,
      "Ġshake": 6883,
      "ĠOking": 6884,
      "ĠRich": 6885,
      "ĠRighteousness": 6886,
      "Ġvener": 6887,
      "ĠAmong": 6888,
      "utes": 6889,
      "Ġsung": 6890,
      "Ġattired": 6891,
      "Ġcompelled": 6892,
      "Ġchoked": 6893,
      "ĠSham": 6894,
      "Ġaccess": 6895,
      "Ġblown": 6896,
      "à¤®": 6897,
      "Ġscent": 6898,
      "Ġcourti": 6899,
      "Ġimpious": 6900,
      "Ġsorrowful": 6901,
      "Ġaccordingly": 6902,
      "oubtedly": 6903,
      "Ġcrows": 6904,
      "Ġdispirited": 6905,
      "itrav": 6906,
      "ĠVidy": 6907,
      "Ġpaths": 6908,
      "Ġproducing": 6909,
      "Ġexertions": 6910,
      "Ġcolours": 6911,
      "Ġspreading": 6912,
      "Ġbuffal": 6913,
      "Ġtrembled": 6914,
      "Ġtongues": 6915,
      "ĠKumbhakarna": 6916,
      "Ġobedience": 6917,
      "Ġgarden": 6918,
      "Ġexercise": 6919,
      "Ġchallenged": 6920,
      "Ġhostilities": 6921,
      "Ġdistinguished": 6922,
      "Ġmasters": 6923,
      "Ġintoxicated": 6924,
      "Ġcomprehe": 6925,
      "asmuch": 6926,
      "ĠPishachas": 6927,
      "Ġwelcomed": 6928,
      "Her": 6929,
      "Res": 6930,
      "ecked": 6931,
      "iin": 6932,
      "mÄ«": 6933,
      "Ġape": 6934,
      "Ġwalls": 6935,
      "Ġhall": 6936,
      "ense": 6937,
      "Ġiniqu": 6938,
      "cha": 6939,
      "Ġheir": 6940,
      "ĠSalutations": 6941,
      "ĠKos": 6942,
      "ĠAcc": 6943,
      "harman": 6944,
      "Ġdoer": 6945,
      "Ġconv": 6946,
      "Ġdescrip": 6947,
      "ĠMun": 6948,
      "ĠMarkandeya": 6949,
      "rouded": 6950,
      "Ġsooth": 6951,
      "Ġperception": 6952,
      "ĠTÄģrÄģ": 6953,
      "Ġformidable": 6954,
      "lease": 6955,
      "asses": 6956,
      "Ġenters": 6957,
      "Ġdelivered": 6958,
      "ÅĨu": 6959,
      "Ġrespects": 6960,
      "Ġplaying": 6961,
      "Ġsurv": 6962,
      "Ġdiscom": 6963,
      "Ġaccordance": 6964,
      "ĠMahÄģ": 6965,
      "Ġdecl": 6966,
      "Ġbanished": 6967,
      "Ġimmutable": 6968,
      "Ġdisposed": 6969,
      "Ġshows": 6970,
      "Ġdrove": 6971,
      "Ġexert": 6972,
      "Ġgratification": 6973,
      "Ġhunting": 6974,
      "Ġgenerally": 6975,
      "ĠDaÅĽ": 6976,
      "Ġmaidens": 6977,
      "Ġrobbed": 6978,
      "ĠArtha": 6979,
      "ĠRÃ¤ks": 6980,
      "Ġtemples": 6981,
      "ĠBhagiratha": 6982,
      "Ġexplained": 6983,
      "ĠRegarding": 6984,
      "Ġwilder": 6985,
      "Ġapartments": 6986,
      "Ġproclaim": 6987,
      "Ġbarley": 6988,
      "Ġvehicle": 6989,
      "ĠRohini": 6990,
      "Ġbitter": 6991,
      "ĠVivas": 6992,
      "Ġcouncill": 6993,
      "Amongst": 6994,
      "Ġconstituted": 6995,
      "ĠAkshauhini": 6996,
      "Ġcharacteristics": 6997,
      "ĠPrana": 6998,
      "Ġamidst": 6999,
      "Ġlunar": 7000,
      "Ġattentive": 7001,
      "Ġcarnage": 7002,
      "Ġjealous": 7003,
      "itravirya": 7004,
      "ca": 7005,
      "cs": 7006,
      "kit": 7007,
      "lands": 7008,
      "Ġfel": 7009,
      "Ġfil": 7010,
      "Ġdrank": 7011,
      "Ġecho": 7012,
      "Ġnavel": 7013,
      "ĠBala": 7014,
      "Ġlif": 7015,
      "ĠKama": 7016,
      "ĠDÄģn": 7017,
      "ĠDakshina": 7018,
      "ĠAso": 7019,
      "ĠAnu": 7020,
      "ĠPrin": 7021,
      "ĠVam": 7022,
      "ruti": 7023,
      "ĠYaks": 7024,
      "aunt": 7025,
      "Ġunst": 7026,
      "Ġungr": 7027,
      "unt": 7028,
      "estions": 7029,
      "Ġexcep": 7030,
      "Ġbooks": 7031,
      "Ġforming": 7032,
      "eprived": 7033,
      "ols": 7034,
      "ĠJanasth": 7035,
      "ĠEk": 7036,
      "Ġgrave": 7037,
      "Ġincident": 7038,
      "Ġdelusion": 7039,
      "ĠVasu": 7040,
      "Ġafflicting": 7041,
      "Ġinvoked": 7042,
      "Ġrub": 7043,
      "Ġeloqu": 7044,
      "ĠDevaki": 7045,
      "á¹ĩa": 7046,
      "Ġcruelty": 7047,
      "Ġcompassing": 7048,
      "Ġmeasures": 7049,
      "bodied": 7050,
      "Ġpoorly": 7051,
      "Ġengagement": 7052,
      "Ġobstructed": 7053,
      "ĠPrahlada": 7054,
      "Ġcrags": 7055,
      "Ġshedding": 7056,
      "roaching": 7057,
      "Ġslightest": 7058,
      "Ġillusions": 7059,
      "Ġinsects": 7060,
      "Ġmandate": 7061,
      "Le": 7062,
      "bre": 7063,
      "fa": 7064,
      "issed": 7065,
      "eni": 7066,
      "Ġfan": 7067,
      "Ġpost": 7068,
      "Ġpige": 7069,
      "Ġgather": 7070,
      "Ġghee": 7071,
      "Ġrevered": 7072,
      "amber": 7073,
      "amanyu": 7074,
      "ĠRuk": 7075,
      "ĠRakÅŁ": 7076,
      "Ġarising": 7077,
      "Ġmeal": 7078,
      "ĠVindhya": 7079,
      "Ġenl": 7080,
      "Ġexact": 7081,
      "Ġactive": 7082,
      "Ġdesign": 7083,
      "ĠMle": 7084,
      "ĠMak": 7085,
      "ivya": 7086,
      "Ġraces": 7087,
      "Ġraging": 7088,
      "ĠNone": 7089,
      "Ġroamed": 7090,
      "Ġspend": 7091,
      "Ġquestions": 7092,
      "Ġblows": 7093,
      "Ġpleases": 7094,
      "ĠAstika": 7095,
      "ĠUluka": 7096,
      "serv": 7097,
      "ĠKuruksh": 7098,
      "Ġoriginal": 7099,
      "Ġembell": 7100,
      "Ġcalcul": 7101,
      "ĠAngiras": 7102,
      "ĠVaru": 7103,
      "Indrajit": 7104,
      "Ġpalm": 7105,
      "Ġplayed": 7106,
      "Ġenquire": 7107,
      "ĠKritavarma": 7108,
      "Ġwalked": 7109,
      "Ġjackal": 7110,
      "ĠChandala": 7111,
      "ĠDesire": 7112,
      "Ġderived": 7113,
      "Ġbefallen": 7114,
      "Ġsexual": 7115,
      "Ġopposite": 7116,
      "Pandu": 7117,
      "Ä±n": 7118,
      "wishers": 7119,
      "Ġcontentment": 7120,
      "Ġdistributed": 7121,
      "Ġtrident": 7122,
      "ĠKurukshetra": 7123,
      "None": 7124,
      "Sl": 7125,
      "Wor": 7126,
      "Well": 7127,
      "course": 7128,
      "lo": 7129,
      "rity": 7130,
      "son": 7131,
      "Ġide": 7132,
      "arks": 7133,
      "Ġded": 7134,
      "Ġdrew": 7135,
      "ourn": 7136,
      "ighth": 7137,
      "eming": 7138,
      "Ġbestower": 7139,
      "Ġloos": 7140,
      "Ġoutcome": 7141,
      "lihood": 7142,
      "ĠJÄģ": 7143,
      "Ġdescending": 7144,
      "atriarch": 7145,
      "Ġequip": 7146,
      "Ġhelped": 7147,
      "charged": 7148,
      "Ġadvant": 7149,
      "Ġpeaceful": 7150,
      "ĠDanava": 7151,
      "Ġmarry": 7152,
      "Ġvanquishing": 7153,
      "Ġexerting": 7154,
      "ĠParvata": 7155,
      "Ġattemp": 7156,
      "ĠAditi": 7157,
      "ĠDevala": 7158,
      "ĠGoing": 7159,
      "Ġdetermination": 7160,
      "Ġmeasuring": 7161,
      "Ġimmortality": 7162,
      "Ġbuilt": 7163,
      "Ġtopics": 7164,
      "Ġforsaken": 7165,
      "Ġobstru": 7166,
      "Ġtranquil": 7167,
      "Ġpotent": 7168,
      "Ġenhancer": 7169,
      "Ġfeeding": 7170,
      "Ġauthority": 7171,
      "ĠBhurish": 7172,
      "Ġinflicted": 7173,
      "Ġbelieve": 7174,
      "Ġfingers": 7175,
      "ĠHimalayas": 7176,
      "Ġexpiation": 7177,
      "Ġincessantly": 7178,
      "Ġstolen": 7179,
      "ĠChekit": 7180,
      "Ġungrateful": 7181,
      "Give": 7182,
      "Pier": 7183,
      "but": 7184,
      "haps": 7185,
      "jy": 7186,
      "prastha": 7187,
      "Ġthrong": 7188,
      "Ġhol": 7189,
      "arily": 7190,
      "Ġtired": 7191,
      "Ġcounter": 7192,
      "Ġpad": 7193,
      "Ġlab": 7194,
      "Ġlines": 7195,
      "irt": 7196,
      "erer": 7197,
      "akened": 7198,
      "Ġsullied": 7199,
      "Ġyourselves": 7200,
      "ĠHara": 7201,
      "Ġconceived": 7202,
      "Ġcarth": 7203,
      "ĠGalava": 7204,
      "okes": 7205,
      "mbling": 7206,
      "Ġriven": 7207,
      "Ġrolling": 7208,
      "irathi": 7209,
      "Ġbol": 7210,
      "Ġsincerity": 7211,
      "Ġconsulted": 7212,
      "Ġtrum": 7213,
      "Ġblowing": 7214,
      "ĠJaratkaru": 7215,
      "Ġassigned": 7216,
      "Ġplough": 7217,
      "Ġprotectors": 7218,
      "ĠVich": 7219,
      "ĠVijaya": 7220,
      "ĠIntellig": 7221,
      "ĠAgn": 7222,
      "Ġexcl": 7223,
      "ÅĽa": 7224,
      "Ã¤n": 7225,
      "Ġblaze": 7226,
      "Ġconstant": 7227,
      "Ġshowering": 7228,
      "Ġdrivers": 7229,
      "Ġuncons": 7230,
      "Ġspots": 7231,
      "Ġincreases": 7232,
      "Ġurine": 7233,
      "Ġnecessity": 7234,
      "iorating": 7235,
      "Ġsearching": 7236,
      "Ġembodiment": 7237,
      "Ġcompanion": 7238,
      "Ġconsole": 7239,
      "Ġfifty": 7240,
      "ĠLikewise": 7241,
      "Ġchanged": 7242,
      "Ġhomes": 7243,
      "ĠSavyasachi": 7244,
      "Ġvillage": 7245,
      "Ġfetters": 7246,
      "ecaying": 7247,
      "Ġcrims": 7248,
      "Ġswelling": 7249,
      "Ġmendicant": 7250,
      "eteriorating": 7251,
      "ĠConsciousness": 7252,
      "Ġwondrous": 7253,
      "Ġapplauded": 7254,
      "Ġpreparations": 7255,
      "Ġpregnant": 7256,
      "Ġcouncillors": 7257,
      "App": 7258,
      "Hence": 7259,
      "Ob": 7260,
      "cre": 7261,
      "cause": 7262,
      "destroy": 7263,
      "ele": 7264,
      "giving": 7265,
      "how": 7266,
      "hued": 7267,
      "jna": 7268,
      "your": 7269,
      "Ġing": 7270,
      "Ġsmeared": 7271,
      "Ġtops": 7272,
      "Ġeighth": 7273,
      "Ġissuing": 7274,
      "Ġrewards": 7275,
      "Ġreign": 7276,
      "chas": 7277,
      "staff": 7278,
      "Ġasas": 7279,
      "verted": 7280,
      "Ġmeth": 7281,
      "ictions": 7282,
      "Ġmyri": 7283,
      "Ġcompe": 7284,
      "tural": 7285,
      "Whether": 7286,
      "okas": 7287,
      "Ġroam": 7288,
      "Ġbowstring": 7289,
      "ĠTri": 7290,
      "Ġflowed": 7291,
      "Ġenerg": 7292,
      "Ġhappens": 7293,
      "ĠThereat": 7294,
      "Ġrelating": 7295,
      "Ġmerch": 7296,
      "Ġrecites": 7297,
      "Ġrepresent": 7298,
      "Ġrestored": 7299,
      "Ġspeakers": 7300,
      "Ġrespectable": 7301,
      "Ġdraw": 7302,
      "Ġauspiciousness": 7303,
      "ĠPradyumna": 7304,
      "à¥ĩ": 7305,
      "Ġsleeps": 7306,
      "Ġcontinue": 7307,
      "Ġrespectively": 7308,
      "ĠSamv": 7309,
      "RÄģvana": 7310,
      "Ġrestrain": 7311,
      "Ġrestraint": 7312,
      "ratu": 7313,
      "ĠKarma": 7314,
      "ĠKashi": 7315,
      "Ġwitnessing": 7316,
      "Ġmaddened": 7317,
      "Ġforsaking": 7318,
      "ĠSaum": 7319,
      "ĠAmbrosia": 7320,
      "ĠUpon": 7321,
      "Desirous": 7322,
      "Ġorgan": 7323,
      "Ġexcessive": 7324,
      "ĠSusharma": 7325,
      "Ġfixing": 7326,
      "Ġcentre": 7327,
      "ĠAdhiratha": 7328,
      "Ġhatred": 7329,
      "Ġstupefaction": 7330,
      "Ġcourtiers": 7331,
      "mÄ«ki": 7332,
      "ĠChekitana": 7333,
      "Cons": 7334,
      "Per": 7335,
      "bal": 7336,
      "do": 7337,
      "even": 7338,
      "ext": 7339,
      "ients": 7340,
      "Ġthie": 7341,
      "Ġax": 7342,
      "isravas": 7343,
      "Ġbidding": 7344,
      "ative": 7345,
      "esides": 7346,
      "Ġfer": 7347,
      "Ġfresh": 7348,
      "Ġcous": 7349,
      "Ġpaying": 7350,
      "Ġpaternal": 7351,
      "Ġtot": 7352,
      "itated": 7353,
      "Ġshade": 7354,
      "ĠIksh": 7355,
      "ĠSl": 7356,
      "ĠSak": 7357,
      "Ġsongs": 7358,
      "ĠPl": 7359,
      "tect": 7360,
      "Ġshoulder": 7361,
      "Ġunsu": 7362,
      "Ġconscious": 7363,
      "ushas": 7364,
      "oloured": 7365,
      "cience": 7366,
      "Ġlivelihood": 7367,
      "Ġproceeds": 7368,
      "ability": 7369,
      "Ġinstantly": 7370,
      "Ġappropri": 7371,
      "Ġjud": 7372,
      "Ġblare": 7373,
      "Ġexpressed": 7374,
      "Ġoppon": 7375,
      "Ġhumanity": 7376,
      "Ġpains": 7377,
      "Ġdrive": 7378,
      "Ġgratify": 7379,
      "ĠDaitya": 7380,
      "Ġstraw": 7381,
      "Ġinjuring": 7382,
      "Ġintercourse": 7383,
      "Ġimmovable": 7384,
      "ĠUtanka": 7385,
      "Ġdependent": 7386,
      "Ġwandered": 7387,
      "Ġprevious": 7388,
      "herds": 7389,
      "Ġdominion": 7390,
      "Ġcommunicate": 7391,
      "ictory": 7392,
      "Ġmaintained": 7393,
      "ĠYuyutsu": 7394,
      "Ġunrighteousness": 7395,
      "Ġwestern": 7396,
      "ĠVisnu": 7397,
      "skilled": 7398,
      "ĠBhojas": 7399,
      "ĠTrigartas": 7400,
      "Surrounded": 7401,
      "ĠPinaka": 7402,
      "emembering": 7403,
      "Ġespied": 7404,
      "Ġfelicity": 7405,
      "Ġembellished": 7406,
      "ĠVichitravirya": 7407,
      "Ch": 7408,
      "Drupada": 7409,
      "Gifted": 7410,
      "pÄģ": 7411,
      "some": 7412,
      "tri": 7413,
      "Ġbrief": 7414,
      "Ġfie": 7415,
      "Ġtum": 7416,
      "Ġtoil": 7417,
      "rodu": 7418,
      "Ġgross": 7419,
      "Ġghost": 7420,
      "ayudha": 7421,
      "Ġheight": 7422,
      "erence": 7423,
      "ĠSÄģ": 7424,
      "Ġliberation": 7425,
      "aint": 7426,
      "ĠKala": 7427,
      "ĠKÈĻ": 7428,
      "Ġvil": 7429,
      "ĠPan": 7430,
      "rue": 7431,
      "iction": 7432,
      "apar": 7433,
      "ĠHar": 7434,
      "Ġexiled": 7435,
      "Ġdogs": 7436,
      "Ġdisgra": 7437,
      "Ġrather": 7438,
      "venge": 7439,
      "Ġmoney": 7440,
      "Ġmightyarmed": 7441,
      "Ġswar": 7442,
      "Ġpersonal": 7443,
      "ringa": 7444,
      "ressions": 7445,
      "Ġsuns": 7446,
      "Ġimped": 7447,
      "Ġpriv": 7448,
      "Ġbreed": 7449,
      "Ġpassage": 7450,
      "Ġfriendly": 7451,
      "ize": 7452,
      "ddressing": 7453,
      "Ġdelightedly": 7454,
      "ĠParikshit": 7455,
      "Ġweakened": 7456,
      "ĠGods": 7457,
      "Ġpunished": 7458,
      "Ġundeteriorating": 7459,
      "ĠRÃ¤ma": 7460,
      "ĠKartikeya": 7461,
      "Ġprinciple": 7462,
      "Ġvalue": 7463,
      "Ġreading": 7464,
      "Ġliberal": 7465,
      "Ġfulfill": 7466,
      "Ġbuild": 7467,
      "Ġnarrat": 7468,
      "Ġancestral": 7469,
      "Ġfleetness": 7470,
      "Ġphysic": 7471,
      "Ġafflicter": 7472,
      "Ġofficers": 7473,
      "Ġdissip": 7474,
      "Ġactually": 7475,
      "Ġencompassed": 7476,
      "ĠPushkara": 7477,
      "ĠDurmukha": 7478,
      "Ġreserved": 7479,
      "ĠVÄģlmÄ«ki": 7480,
      "Ġtirtha": 7481,
      "Ġpeerless": 7482,
      "Ġenergies": 7483,
      "Look": 7484,
      "Persons": 7485,
      "Vir": 7486,
      "aged": 7487,
      "back": 7488,
      "gers": 7489,
      "ium": 7490,
      "otion": 7491,
      "vis": 7492,
      "yaka": 7493,
      "inks": 7494,
      "Ġtaught": 7495,
      "ane": 7496,
      "Ġdies": 7497,
      "Ġpil": 7498,
      "Ġlac": 7499,
      "Ġnin": 7500,
      "Ġreleased": 7501,
      "ĠSit": 7502,
      "aments": 7503,
      "Ġdeg": 7504,
      "Ġdemer": 7505,
      "Ġarena": 7506,
      "kets": 7507,
      "apara": 7508,
      "ĠHer": 7509,
      "Ġdispelled": 7510,
      "lacing": 7511,
      "Ġunin": 7512,
      "Ġcooked": 7513,
      "ĠNÄģ": 7514,
      "Ġload": 7515,
      "Ġelement": 7516,
      "Ġelegant": 7517,
      "Ġoffence": 7518,
      "Ġfired": 7519,
      "Ġfee": 7520,
      "Ġincant": 7521,
      "Ġdepart": 7522,
      "Ġruling": 7523,
      "ĠFate": 7524,
      "Ġinde": 7525,
      "ĠSatya": 7526,
      "ntaka": 7527,
      "Ġjavel": 7528,
      "oubt": 7529,
      "Ġexpanded": 7530,
      "Ġforthwith": 7531,
      "Ġturns": 7532,
      "Ġhurling": 7533,
      "ĠAngas": 7534,
      "Ġdropping": 7535,
      "Ġsilence": 7536,
      "Ġaware": 7537,
      "Ġlovely": 7538,
      "unda": 7539,
      "Ġbedecked": 7540,
      "Ġhonouring": 7541,
      "ifications": 7542,
      "Ġinhabiting": 7543,
      "Ġportions": 7544,
      "Ġvisited": 7545,
      "Ġrequested": 7546,
      "Ġflew": 7547,
      "Ġmovements": 7548,
      "Ġviolence": 7549,
      "Ġapprehension": 7550,
      "Ġsurprise": 7551,
      "Ġventure": 7552,
      "ĠRÄĥvaÅĨa": 7553,
      "Ġpeacock": 7554,
      "ĠViÅŁÅĨu": 7555,
      "ĠVipula": 7556,
      "ĠKalinga": 7557,
      "Ġopposites": 7558,
      "Ġeminent": 7559,
      "Ġdismissed": 7560,
      "Ġdimin": 7561,
      "ĠVajra": 7562,
      "suming": 7563,
      "ĠKhandava": 7564,
      "ĠKrishnas": 7565,
      "Ġwilderness": 7566,
      "ĠDÄģnavas": 7567,
      "ĠAsoka": 7568,
      "Ġunconscious": 7569,
      "Ang": 7570,
      "Afflicted": 7571,
      "Gand": 7572,
      "Living": 7573,
      "Un": 7574,
      "cqu": 7575,
      "eem": 7576,
      "hear": 7577,
      "onder": 7578,
      "sti": 7579,
      "Ġrows": 7580,
      "Ġverses": 7581,
      "Ġbill": 7582,
      "Ġbos": 7583,
      "ony": 7584,
      "Ġtries": 7585,
      "Ġcustom": 7586,
      "Ġmud": 7587,
      "Ġpop": 7588,
      "Ġgrou": 7589,
      "aled": 7590,
      "Ġket": 7591,
      "Ġretain": 7592,
      "irst": 7593,
      "imo": 7594,
      "ĠSire": 7595,
      "ĠSva": 7596,
      "Ġhavoc": 7597,
      "ĠAre": 7598,
      "utting": 7599,
      "ĠPus": 7600,
      "ĠPaka": 7601,
      "haras": 7602,
      "ĠYakÅŁ": 7603,
      "ounced": 7604,
      "Ġdisaster": 7605,
      "Ġsoil": 7606,
      "Ġunatt": 7607,
      "Ġabund": 7608,
      "ĠLava": 7609,
      "ĠNeither": 7610,
      "irandh": 7611,
      "Ġleaping": 7612,
      "jected": 7613,
      "ĠWhatever": 7614,
      "Ġblades": 7615,
      "Ġbeautified": 7616,
      "ĠWest": 7617,
      "Ġcourses": 7618,
      "what": 7619,
      "Ġtenth": 7620,
      "Ġdecay": 7621,
      "Ġcarelessness": 7622,
      "Ġexped": 7623,
      "Ġfiercely": 7624,
      "ĠLakÅŁmana": 7625,
      "Ġnumbering": 7626,
      "astern": 7627,
      "Ġscriptural": 7628,
      "Ġfreedom": 7629,
      "acrificial": 7630,
      "Ġdrops": 7631,
      "Ġvoices": 7632,
      "ĠMagh": 7633,
      "Ġdriving": 7634,
      "Ġsimply": 7635,
      "ĠPuranas": 7636,
      "ĠSamans": 7637,
      "ĠBrihad": 7638,
      "Ġrestraining": 7639,
      "going": 7640,
      "Ġpoisonous": 7641,
      "Ġdespair": 7642,
      "ĠÅļatrughna": 7643,
      "Ġeagerly": 7644,
      "Ġcrest": 7645,
      "Ġgrasping": 7646,
      "fortunate": 7647,
      "Ġsummoning": 7648,
      "Ġyojanas": 7649,
      "Ġhabits": 7650,
      "aunted": 7651,
      "ĠYajn": 7652,
      "ĠIsland": 7653,
      "Ġjumping": 7654,
      "Ġforbidden": 7655,
      "Ġdevouring": 7656,
      "Ġeffects": 7657,
      "Ġjudgement": 7658,
      "Ġthoroughly": 7659,
      "Ġsystem": 7660,
      "ĠSattva": 7661,
      "Ġrepresented": 7662,
      "ĠVaruÅĨa": 7663,
      "Ġadvantage": 7664,
      "ĠIntelligence": 7665,
      "irandhri": 7666,
      "Other": 7667,
      "Sahadeva": 7668,
      "iÅĽ": 7669,
      "othing": 7670,
      "phy": 7671,
      "skin": 7672,
      "was": 7673,
      "Ġavail": 7674,
      "enetra": 7675,
      "Ġfesti": 7676,
      "Ġmire": 7677,
      "Ġmix": 7678,
      "Ġpard": 7679,
      "set": 7680,
      "Ġreverse": 7681,
      "Ġhears": 7682,
      "Ġshun": 7683,
      "ĠIts": 7684,
      "otis": 7685,
      "ousands": 7686,
      "ĠKak": 7687,
      "Ġvices": 7688,
      "ĠParashara": 7689,
      "ĠHoma": 7690,
      "Ġexhaus": 7691,
      "ouring": 7692,
      "iling": 7693,
      "uddha": 7694,
      "ĠMitra": 7695,
      "ĠGaya": 7696,
      "Ġobe": 7697,
      "Ġcop": 7698,
      "yaá¹ĩa": 7699,
      "ĠLiving": 7700,
      "ĠLomasha": 7701,
      "ĠCitra": 7702,
      "Ġterms": 7703,
      "Ġpresiding": 7704,
      "Ġprayed": 7705,
      "ampana": 7706,
      "ĠWater": 7707,
      "Ġrepul": 7708,
      "atsena": 7709,
      "Ġbelow": 7710,
      "Ġinstruction": 7711,
      "Ġinstead": 7712,
      "âĢĿ.": 7713,
      "Ġjoyfully": 7714,
      "Ġsuperiority": 7715,
      "Ġcurrents": 7716,
      "Ġintrodu": 7717,
      "Ġawakened": 7718,
      "Ġcapture": 7719,
      "ĠBeings": 7720,
      "Ġmetals": 7721,
      "Ġundoubtedly": 7722,
      "Ġundecaying": 7723,
      "Ġaffluence": 7724,
      "ká¹£a": 7725,
      "Ġjewel": 7726,
      "ĠBhagirathi": 7727,
      "Ġcollect": 7728,
      "Ġrequire": 7729,
      "ajali": 7730,
      "Ġescaped": 7731,
      "Ġsandals": 7732,
      "Ġarriving": 7733,
      "engers": 7734,
      "Ġcalling": 7735,
      "Ġprogress": 7736,
      "Ġpiteous": 7737,
      "Ġcopper": 7738,
      "Ġtalking": 7739,
      "Ġfowler": 7740,
      "Ġprostrate": 7741,
      "Ġworshippers": 7742,
      "Ġterritories": 7743,
      "Ġresidue": 7744,
      "Ġremembered": 7745,
      "Ġeloquent": 7746,
      "Ġloosened": 7747,
      "Ġpaddy": 7748,
      "enetrable": 7749,
      "Ku": 7750,
      "bow": 7751,
      "gan": 7752,
      "mas": 7753,
      "oso": 7754,
      "phe": 7755,
      "pleased": 7756,
      "yuta": 7757,
      "inent": 7758,
      "Ġthereat": 7759,
      "rect": 7760,
      "atru": 7761,
      "Ġcres": 7762,
      "Ġdangers": 7763,
      "Ġwight": 7764,
      "Ġindom": 7765,
      "Ġloses": 7766,
      "owards": 7767,
      "iry": 7768,
      "ayam": 7769,
      "stricken": 7770,
      "ĠSÄ«": 7771,
      "ĠSutas": 7772,
      "Ġallig": 7773,
      "ĠRahu": 7774,
      "ĠDis": 7775,
      "uteous": 7776,
      "ĠPad": 7777,
      "alling": 7778,
      "Ġalarmed": 7779,
      "Ġalike": 7780,
      "Ġenvo": 7781,
      "Ġexamp": 7782,
      "ĠMantra": 7783,
      "Ġadhere": 7784,
      "tured": 7785,
      "Ġchanges": 7786,
      "arded": 7787,
      "Ġrite": 7788,
      "lagr": 7789,
      "Ġungu": 7790,
      "Ġneut": 7791,
      "Ġabide": 7792,
      "ĠShala": 7793,
      "upala": 7794,
      "Ġexcell": 7795,
      "ĠTreta": 7796,
      "Ġflood": 7797,
      "Ġfearless": 7798,
      "plicity": 7799,
      "ĠEast": 7800,
      "ĠSub": 7801,
      "Ġillum": 7802,
      "Ġrelation": 7803,
      "Ġwatery": 7804,
      "ĠGandhara": 7805,
      "Ġsmote": 7806,
      "ables": 7807,
      "Ġhonor": 7808,
      "Ġimpenetrable": 7809,
      "Ġruin": 7810,
      "Ġcurds": 7811,
      "Ġbeauteous": 7812,
      "Ġhurl": 7813,
      "Ġtravel": 7814,
      "ĠOnce": 7815,
      "Ġtranscend": 7816,
      "Ġmeantime": 7817,
      "Ġgrowth": 7818,
      "Ġbesmeared": 7819,
      "Ġgirls": 7820,
      "ivida": 7821,
      "Before": 7822,
      "Ġdict": 7823,
      "Ġsearched": 7824,
      "Ġshouted": 7825,
      "Ġyells": 7826,
      "Ġascertaining": 7827,
      "Ġfrequently": 7828,
      "Ġyoga": 7829,
      "Ġsuperhuman": 7830,
      "Ġantagonists": 7831,
      "therefore": 7832,
      "Ġpitch": 7833,
      "Ġdistinct": 7834,
      "Ġexpecting": 7835,
      "ĠAndhakas": 7836,
      "Ġerror": 7837,
      "Ġassistance": 7838,
      "Ġdwelt": 7839,
      "Ġlamps": 7840,
      "Ġproportions": 7841,
      "Ġluxury": 7842,
      "Ġhawk": 7843,
      "Ġindifferent": 7844,
      "Satyaki": 7845,
      "ĠRakÅŁasas": 7846,
      "Ġbolt": 7847,
      "Ġpilgri": 7848,
      "Ġexample": 7849,
      "lagration": 7850,
      "Sacrifice": 7851,
      "fire": 7852,
      "fty": 7853,
      "sis": 7854,
      "taka": 7855,
      "yash": 7856,
      "zz": 7857,
      "Ġwall": 7858,
      "Ġhiin": 7859,
      "Ġoffices": 7860,
      "encing": 7861,
      "Ġtear": 7862,
      "Ġpred": 7863,
      "Ġpaste": 7864,
      "tiring": 7865,
      "omm": 7866,
      "ĠOur": 7867,
      "aker": 7868,
      "ulation": 7869,
      "urance": 7870,
      "ĠRÅŁ": 7871,
      "ĠAh": 7872,
      "ĠAch": 7873,
      "ĠVy": 7874,
      "Ġate": 7875,
      "Ġexec": 7876,
      "amely": 7877,
      "ĠYudh": 7878,
      "Ġrare": 7879,
      "ositions": 7880,
      "Ġnecks": 7881,
      "Ġroads": 7882,
      "forming": 7883,
      "Ġclatter": 7884,
      "Ġboar": 7885,
      "Ġquiver": 7886,
      "ĠJaya": 7887,
      "ĠJishnu": 7888,
      "ĠJajali": 7889,
      "Ġordain": 7890,
      "again": 7891,
      "angled": 7892,
      "Ġheavily": 7893,
      "Ġinfam": 7894,
      "Ġeffic": 7895,
      "à¤¸": 7896,
      "Ġperformer": 7897,
      "Ġbelief": 7898,
      "Ġscene": 7899,
      "Ġpursue": 7900,
      "Ġbacks": 7901,
      "Ġassembla": 7902,
      "Ġseventh": 7903,
      "à¥ģ": 7904,
      "ĠSuparna": 7905,
      "Ġstudded": 7906,
      "ĠMahab": 7907,
      "petals": 7908,
      "Ġhunter": 7909,
      "ĠDevayani": 7910,
      "ĠKaikeyas": 7911,
      "Ġesteem": 7912,
      "Ġimmeasurably": 7913,
      "Ġresolve": 7914,
      "Ġdominions": 7915,
      "ibi": 7916,
      "Ġextended": 7917,
      "ĠBaladeva": 7918,
      "Ġmentally": 7919,
      "ĠRÃ¡": 7920,
      "Excellent": 7921,
      "Ġmotionless": 7922,
      "ĠDvapara": 7923,
      "Ġgroves": 7924,
      "Ġuprooted": 7925,
      "Ġconsultation": 7926,
      "change": 7927,
      "Ġsplit": 7928,
      "Ġvenerable": 7929,
      "ĠJanasthÄģna": 7930,
      "Ġexactly": 7931,
      "Ġcrimson": 7932,
      "Ġdisgrace": 7933,
      "Yama": 7934,
      "cas": 7935,
      "jata": 7936,
      "nala": 7937,
      "oja": 7938,
      "pre": 7939,
      "pointed": 7940,
      "saptakas": 7941,
      "uh": 7942,
      "uct": 7943,
      "thu": 7944,
      "Ġthein": 7945,
      "Ġwins": 7946,
      "Ġbounded": 7947,
      "Ġtough": 7948,
      "Ġmater": 7949,
      "orp": 7950,
      "Ġpull": 7951,
      "Ġinasmuch": 7952,
      "Ġbees": 7953,
      "rice": 7954,
      "avata": 7955,
      "also": 7956,
      "Ġreaps": 7957,
      "omed": 7958,
      "ĠIra": 7959,
      "ĠSm": 7960,
      "ĠSn": 7961,
      "ĠSurely": 7962,
      "Ġforget": 7963,
      "Ġallowed": 7964,
      "Ġwholly": 7965,
      "ĠKan": 7966,
      "ĠAv": 7967,
      "ĠPleasure": 7968,
      "Ġarg": 7969,
      "Ġworm": 7970,
      "ruva": 7971,
      "icked": 7972,
      "Ġprod": 7973,
      "iloso": 7974,
      "Ġtherefrom": 7975,
      "ĠBrahin": 7976,
      "osal": 7977,
      "Ġcogn": 7978,
      "Ġfacing": 7979,
      "Ġrival": 7980,
      "vede": 7981,
      "Ġresisting": 7982,
      "Ġleg": 7983,
      "Ġanybody": 7984,
      "Ġimper": 7985,
      "ansa": 7986,
      "leasant": 7987,
      "Ġundergone": 7988,
      "Ġpreced": 7989,
      "Ġrelie": 7990,
      "ĠFalguni": 7991,
      "Ġpenn": 7992,
      "uchi": 7993,
      "Ġselfcontrol": 7994,
      "Ġsounded": 7995,
      "issimo": 7996,
      "acity": 7997,
      "Ġoriginating": 7998,
      "Only": 7999
    },
    "merges": [
      [
        "t",
        "h"
      ],
      [
        "Ġ",
        "th"
      ],
      [
        "Ġ",
        "a"
      ],
      [
        "i",
        "n"
      ],
      [
        "Ġth",
        "e"
      ],
      [
        "Ġ",
        "o"
      ],
      [
        "r",
        "e"
      ],
      [
        "Ġ",
        "w"
      ],
      [
        "Ġ",
        "s"
      ],
      [
        "n",
        "d"
      ],
      [
        "Ġ",
        "h"
      ],
      [
        "e",
        "r"
      ],
      [
        "Ġo",
        "f"
      ],
      [
        "i",
        "s"
      ],
      [
        "Ġ",
        "b"
      ],
      [
        "e",
        "d"
      ],
      [
        "in",
        "g"
      ],
      [
        "o",
        "u"
      ],
      [
        "a",
        "t"
      ],
      [
        "e",
        "s"
      ],
      [
        "e",
        "n"
      ],
      [
        "o",
        "n"
      ],
      [
        "Ġ",
        "f"
      ],
      [
        "a",
        "r"
      ],
      [
        "Ġ",
        "t"
      ],
      [
        "Ġa",
        "nd"
      ],
      [
        "Ġ",
        "c"
      ],
      [
        "Ġ",
        "m"
      ],
      [
        "a",
        "n"
      ],
      [
        "o",
        "r"
      ],
      [
        "a",
        "s"
      ],
      [
        "Ġ",
        "d"
      ],
      [
        "l",
        "l"
      ],
      [
        "Ġ",
        "p"
      ],
      [
        "Ġt",
        "o"
      ],
      [
        "Ġw",
        "i"
      ],
      [
        "Ġ",
        "in"
      ],
      [
        "r",
        "o"
      ],
      [
        "i",
        "t"
      ],
      [
        "Ġwi",
        "th"
      ],
      [
        "Ġ",
        "g"
      ],
      [
        "Ġ",
        "l"
      ],
      [
        "Ġb",
        "e"
      ],
      [
        "Ġ",
        "y"
      ],
      [
        "Ġw",
        "h"
      ],
      [
        "r",
        "a"
      ],
      [
        "Ġ",
        "e"
      ],
      [
        "c",
        "e"
      ],
      [
        "Ġy",
        "ou"
      ],
      [
        "s",
        "e"
      ],
      [
        "r",
        "i"
      ],
      [
        "l",
        "e"
      ],
      [
        "a",
        "v"
      ],
      [
        "T",
        "h"
      ],
      [
        "Ġth",
        "at"
      ],
      [
        "o",
        "w"
      ],
      [
        "Ġ",
        "n"
      ],
      [
        "g",
        "h"
      ],
      [
        "a",
        "l"
      ],
      [
        "Ġ",
        "k"
      ],
      [
        "t",
        "i"
      ],
      [
        "Ġo",
        "n"
      ],
      [
        "Ġb",
        "y"
      ],
      [
        "a",
        "d"
      ],
      [
        "Ġ",
        "is"
      ],
      [
        "Ġ",
        "re"
      ],
      [
        "c",
        "h"
      ],
      [
        "l",
        "d"
      ],
      [
        "i",
        "r"
      ],
      [
        "i",
        "m"
      ],
      [
        "a",
        "y"
      ],
      [
        "Ġh",
        "is"
      ],
      [
        "Ġh",
        "e"
      ],
      [
        "i",
        "d"
      ],
      [
        "s",
        "t"
      ],
      [
        "o",
        "m"
      ],
      [
        "e",
        "re"
      ],
      [
        "l",
        "y"
      ],
      [
        "Ġs",
        "h"
      ],
      [
        "Ġa",
        "s"
      ],
      [
        "v",
        "er"
      ],
      [
        "Ġ",
        "O"
      ],
      [
        "en",
        "t"
      ],
      [
        "Ġ",
        "I"
      ],
      [
        "a",
        "k"
      ],
      [
        "o",
        "t"
      ],
      [
        "Ġ",
        "u"
      ],
      [
        "is",
        "h"
      ],
      [
        "Ġ",
        "S"
      ],
      [
        "a",
        "m"
      ],
      [
        "gh",
        "t"
      ],
      [
        "a",
        "nd"
      ],
      [
        "Ġf",
        "or"
      ],
      [
        "Ġa",
        "ll"
      ],
      [
        "Ġwh",
        "o"
      ],
      [
        "Ġ",
        "B"
      ],
      [
        "o",
        "d"
      ],
      [
        "u",
        "l"
      ],
      [
        "u",
        "r"
      ],
      [
        "Ġs",
        "a"
      ],
      [
        "th",
        "er"
      ],
      [
        "Ġl",
        "i"
      ],
      [
        "Ġk",
        "ing"
      ],
      [
        "a",
        "in"
      ],
      [
        "c",
        "t"
      ],
      [
        "u",
        "s"
      ],
      [
        "ou",
        "s"
      ],
      [
        "es",
        "s"
      ],
      [
        "re",
        "at"
      ],
      [
        "on",
        "s"
      ],
      [
        "Ġ",
        "K"
      ],
      [
        "Ġ",
        "("
      ],
      [
        "Ġh",
        "av"
      ],
      [
        "Ġd",
        "e"
      ],
      [
        "o",
        "re"
      ],
      [
        "Ġa",
        "re"
      ],
      [
        "k",
        "e"
      ],
      [
        "Ġ",
        "R"
      ],
      [
        "Ġ",
        "v"
      ],
      [
        "Ġ",
        "D"
      ],
      [
        "Ġ",
        "A"
      ],
      [
        "Th",
        "e"
      ],
      [
        "Ġs",
        "e"
      ],
      [
        "u",
        "t"
      ],
      [
        "Ġa",
        "n"
      ],
      [
        "Ġs",
        "t"
      ],
      [
        "Ġh",
        "im"
      ],
      [
        "Ġs",
        "u"
      ],
      [
        "Ġs",
        "on"
      ],
      [
        "Ġyou",
        "r"
      ],
      [
        "Ġ",
        "P"
      ],
      [
        "Ġa",
        "r"
      ],
      [
        "es",
        "t"
      ],
      [
        "a",
        "ll"
      ],
      [
        "er",
        "s"
      ],
      [
        "re",
        "s"
      ],
      [
        "Ä",
        "ģ"
      ],
      [
        "Ġth",
        "is"
      ],
      [
        "i",
        "ght"
      ],
      [
        "Ġw",
        "as"
      ],
      [
        "f",
        "ul"
      ],
      [
        "Ġm",
        "e"
      ],
      [
        "Ġn",
        "ot"
      ],
      [
        "Ġ",
        "V"
      ],
      [
        "Ġ",
        "it"
      ],
      [
        "Ġg",
        "reat"
      ],
      [
        "Ġw",
        "or"
      ],
      [
        "Ġa",
        "l"
      ],
      [
        "Ġw",
        "e"
      ],
      [
        "Ġon",
        "e"
      ],
      [
        "Ġsa",
        "id"
      ],
      [
        "ro",
        "m"
      ],
      [
        "d",
        "s"
      ],
      [
        "t",
        "s"
      ],
      [
        "v",
        "e"
      ],
      [
        "Ġa",
        "t"
      ],
      [
        "p",
        "e"
      ],
      [
        "r",
        "u"
      ],
      [
        "Ġ",
        "en"
      ],
      [
        "q",
        "u"
      ],
      [
        "i",
        "c"
      ],
      [
        "o",
        "se"
      ],
      [
        "an",
        "a"
      ],
      [
        "Ġthe",
        "ir"
      ],
      [
        "i",
        "on"
      ],
      [
        "a",
        "p"
      ],
      [
        "ro",
        "w"
      ],
      [
        "g",
        "e"
      ],
      [
        "h",
        "ar"
      ],
      [
        "b",
        "le"
      ],
      [
        "Ġhav",
        "e"
      ],
      [
        "Ġf",
        "rom"
      ],
      [
        "t",
        "er"
      ],
      [
        "Ġh",
        "er"
      ],
      [
        "n",
        "a"
      ],
      [
        "Ġ",
        "H"
      ],
      [
        "Ġm",
        "y"
      ],
      [
        "ou",
        "ld"
      ],
      [
        "Ġe",
        "x"
      ],
      [
        "Ġo",
        "r"
      ],
      [
        "i",
        "re"
      ],
      [
        "'",
        "s"
      ],
      [
        "i",
        "ll"
      ],
      [
        "m",
        "a"
      ],
      [
        "Ġd",
        "o"
      ],
      [
        "Ġli",
        "ke"
      ],
      [
        "i",
        "f"
      ],
      [
        "Ġwh",
        "i"
      ],
      [
        "e",
        "l"
      ],
      [
        "Ġg",
        "o"
      ],
      [
        "e",
        "ar"
      ],
      [
        "Ġth",
        "ose"
      ],
      [
        "Ġa",
        "c"
      ],
      [
        "Ġc",
        "om"
      ],
      [
        "Ġc",
        "on"
      ],
      [
        "u",
        "m"
      ],
      [
        "o",
        "st"
      ],
      [
        "se",
        "l"
      ],
      [
        "s",
        "h"
      ],
      [
        "ou",
        "r"
      ],
      [
        "e",
        "t"
      ],
      [
        "Ġp",
        "ro"
      ],
      [
        "Ġu",
        "p"
      ],
      [
        "am",
        "e"
      ],
      [
        "Ġf",
        "ore"
      ],
      [
        "an",
        "t"
      ],
      [
        "Ġ",
        "Y"
      ],
      [
        "at",
        "t"
      ],
      [
        "i",
        "l"
      ],
      [
        "u",
        "d"
      ],
      [
        "Ġthe",
        "m"
      ],
      [
        "c",
        "k"
      ],
      [
        "Ġd",
        "es"
      ],
      [
        "Ġwhi",
        "ch"
      ],
      [
        "t",
        "ain"
      ],
      [
        "it",
        "y"
      ],
      [
        "Ġ",
        "M"
      ],
      [
        "s",
        "o"
      ],
      [
        "ou",
        "n"
      ],
      [
        "ere",
        "d"
      ],
      [
        "a",
        "u"
      ],
      [
        "Ġthe",
        "re"
      ],
      [
        "ra",
        "h"
      ],
      [
        "Ġ",
        "Th"
      ],
      [
        "in",
        "d"
      ],
      [
        "Ġm",
        "an"
      ],
      [
        "on",
        "g"
      ],
      [
        "Ġf",
        "o"
      ],
      [
        "Ġwi",
        "ll"
      ],
      [
        "i",
        "v"
      ],
      [
        "i",
        "es"
      ],
      [
        "ĠB",
        "rah"
      ],
      [
        "ti",
        "on"
      ],
      [
        "t",
        "e"
      ],
      [
        "Ġw",
        "ere"
      ],
      [
        "Ġc",
        "ar"
      ],
      [
        "Ġo",
        "ther"
      ],
      [
        "Ġsh",
        "ould"
      ],
      [
        "Ġh",
        "as"
      ],
      [
        "Ġd",
        "is"
      ],
      [
        "Ġhav",
        "ing"
      ],
      [
        "att",
        "le"
      ],
      [
        "i",
        "ous"
      ],
      [
        "r",
        "ou"
      ],
      [
        "f",
        "e"
      ],
      [
        "Ġb",
        "attle"
      ],
      [
        "re",
        "d"
      ],
      [
        "Ġthe",
        "n"
      ],
      [
        "Ġthe",
        "y"
      ],
      [
        "i",
        "gh"
      ],
      [
        "n",
        "ow"
      ],
      [
        "or",
        "s"
      ],
      [
        "Ġa",
        "d"
      ],
      [
        "Ġm",
        "en"
      ],
      [
        "sel",
        "f"
      ],
      [
        "Ġs",
        "p"
      ],
      [
        "l",
        "ed"
      ],
      [
        "ver",
        "y"
      ],
      [
        "t",
        "u"
      ],
      [
        "Ġh",
        "ad"
      ],
      [
        "Ġbe",
        "en"
      ],
      [
        "e",
        "m"
      ],
      [
        "t",
        "ed"
      ],
      [
        "Ġsh",
        "all"
      ],
      [
        "w",
        "ay"
      ],
      [
        "Ġs",
        "o"
      ],
      [
        "W",
        "h"
      ],
      [
        "i",
        "g"
      ],
      [
        "s",
        "ed"
      ],
      [
        "Ġ",
        "The"
      ],
      [
        "Ġc",
        "h"
      ],
      [
        "Ġa",
        "g"
      ],
      [
        "ĠR",
        "Äģ"
      ],
      [
        "Ġal",
        "so"
      ],
      [
        "c",
        "ri"
      ],
      [
        "ar",
        "th"
      ],
      [
        "i",
        "e"
      ],
      [
        "m",
        "ost"
      ],
      [
        "Ġ",
        "G"
      ],
      [
        "Ġ",
        "ra"
      ],
      [
        "or",
        "d"
      ],
      [
        "en",
        "ce"
      ],
      [
        "ar",
        "d"
      ],
      [
        "om",
        "e"
      ],
      [
        "ĠB",
        "h"
      ],
      [
        "at",
        "ed"
      ],
      [
        "Ġ",
        "r"
      ],
      [
        "o",
        "k"
      ],
      [
        "ĠBrah",
        "m"
      ],
      [
        "Ġh",
        "igh"
      ],
      [
        "Ġbe",
        "ing"
      ],
      [
        "Ġbe",
        "c"
      ],
      [
        "Ġthe",
        "se"
      ],
      [
        "l",
        "a"
      ],
      [
        "Ġu",
        "n"
      ],
      [
        "Ġfore",
        "most"
      ],
      [
        "v",
        "a"
      ],
      [
        "Ġa",
        "m"
      ],
      [
        "o",
        "s"
      ],
      [
        "Ġo",
        "b"
      ],
      [
        "u",
        "n"
      ],
      [
        "v",
        "en"
      ],
      [
        "Ġar",
        "m"
      ],
      [
        "Ġar",
        "row"
      ],
      [
        "Ġn",
        "e"
      ],
      [
        "Ġm",
        "ight"
      ],
      [
        "Ġa",
        "b"
      ],
      [
        "p",
        "p"
      ],
      [
        "Ġc",
        "o"
      ],
      [
        "f",
        "ore"
      ],
      [
        "a",
        "ch"
      ],
      [
        "nd",
        "er"
      ],
      [
        "ow",
        "er"
      ],
      [
        "ou",
        "t"
      ],
      [
        "as",
        "t"
      ],
      [
        "es",
        "ti"
      ],
      [
        "Ġk",
        "now"
      ],
      [
        "Ġa",
        "f"
      ],
      [
        "a",
        "ble"
      ],
      [
        "Ġt",
        "w"
      ],
      [
        "c",
        "es"
      ],
      [
        "at",
        "a"
      ],
      [
        "Ġm",
        "on"
      ],
      [
        "Ġs",
        "l"
      ],
      [
        "al",
        "s"
      ],
      [
        "ĠS",
        "h"
      ],
      [
        "a",
        "th"
      ],
      [
        "or",
        "n"
      ],
      [
        "Ġc",
        "el"
      ],
      [
        "at",
        "e"
      ],
      [
        "Ġf",
        "a"
      ],
      [
        "Ġp",
        "er"
      ],
      [
        "ĠP",
        "and"
      ],
      [
        "at",
        "ion"
      ],
      [
        "Ġn",
        "o"
      ],
      [
        "Ġcel",
        "esti"
      ],
      [
        "Ġth",
        "us"
      ],
      [
        "y",
        "a"
      ],
      [
        "A",
        "nd"
      ],
      [
        "m",
        "b"
      ],
      [
        "ar",
        "ri"
      ],
      [
        "Ġwor",
        "ds"
      ],
      [
        "re",
        "e"
      ],
      [
        "Ġmight",
        "y"
      ],
      [
        "Ġ",
        "L"
      ],
      [
        "ri",
        "e"
      ],
      [
        "Ġarrow",
        "s"
      ],
      [
        "p",
        "er"
      ],
      [
        "Ġ",
        "N"
      ],
      [
        "Ġwh",
        "at"
      ],
      [
        "ak",
        "e"
      ],
      [
        "Ġ",
        "ri"
      ],
      [
        "Ġher",
        "o"
      ],
      [
        "h",
        "a"
      ],
      [
        "av",
        "ing"
      ],
      [
        "ĠH",
        "e"
      ],
      [
        "on",
        "e"
      ],
      [
        "Ġag",
        "ain"
      ],
      [
        "u",
        "p"
      ],
      [
        "Ġc",
        "reat"
      ],
      [
        "e",
        "ll"
      ],
      [
        "t",
        "o"
      ],
      [
        "j",
        "u"
      ],
      [
        "i",
        "ons"
      ],
      [
        "i",
        "ce"
      ],
      [
        "ow",
        "n"
      ],
      [
        "ti",
        "c"
      ],
      [
        "Ġac",
        "c"
      ],
      [
        "i",
        "ve"
      ],
      [
        "ĠB",
        "har"
      ],
      [
        "Ġp",
        "ower"
      ],
      [
        "Ġ",
        "ro"
      ],
      [
        "n",
        "ess"
      ],
      [
        "Ġwor",
        "ld"
      ],
      [
        "w",
        "n"
      ],
      [
        "Ġb",
        "ow"
      ],
      [
        "Th",
        "en"
      ],
      [
        "v",
        "ed"
      ],
      [
        "f",
        "or"
      ],
      [
        "ur",
        "n"
      ],
      [
        "u",
        "re"
      ],
      [
        "i",
        "ra"
      ],
      [
        "Ġd",
        "own"
      ],
      [
        "e",
        "ing"
      ],
      [
        "h",
        "ish"
      ],
      [
        "Ġc",
        "an"
      ],
      [
        "f",
        "ic"
      ],
      [
        "g",
        "ed"
      ],
      [
        "Ġb",
        "est"
      ],
      [
        "i",
        "ed"
      ],
      [
        "ill",
        "ed"
      ],
      [
        "l",
        "ess"
      ],
      [
        "is",
        "t"
      ],
      [
        "Ġp",
        "ers"
      ],
      [
        "ar",
        "t"
      ],
      [
        "Ġre",
        "g"
      ],
      [
        "ir",
        "tu"
      ],
      [
        "Ġc",
        "l"
      ],
      [
        "Ġd",
        "est"
      ],
      [
        "c",
        "ed"
      ],
      [
        "u",
        "st"
      ],
      [
        "m",
        "ent"
      ],
      [
        "o",
        "ld"
      ],
      [
        "Ġre",
        "s"
      ],
      [
        "ct",
        "s"
      ],
      [
        "an",
        "ce"
      ],
      [
        "r",
        "ish"
      ],
      [
        "and",
        "s"
      ],
      [
        "Ġwh",
        "en"
      ],
      [
        "v",
        "es"
      ],
      [
        "Ġbe",
        "g"
      ],
      [
        "Ġg",
        "od"
      ],
      [
        "Ġex",
        "ce"
      ],
      [
        "is",
        "e"
      ],
      [
        "Ġs",
        "pe"
      ],
      [
        "Ġv",
        "irtu"
      ],
      [
        "ad",
        "e"
      ],
      [
        "Ġb",
        "o"
      ],
      [
        "Th",
        "ere"
      ],
      [
        "Ġe",
        "arth"
      ],
      [
        "ou",
        "nd"
      ],
      [
        "Ġl",
        "e"
      ],
      [
        "g",
        "a"
      ],
      [
        "Ġe",
        "ven"
      ],
      [
        "in",
        "e"
      ],
      [
        "Ġm",
        "o"
      ],
      [
        "Ġhim",
        "self"
      ],
      [
        "Ġup",
        "on"
      ],
      [
        "o",
        "p"
      ],
      [
        "o",
        "od"
      ],
      [
        "Ġ",
        "qu"
      ],
      [
        "Ġl",
        "o"
      ],
      [
        "c",
        "tion"
      ],
      [
        "Ġs",
        "in"
      ],
      [
        "Ġe",
        "nd"
      ],
      [
        "Ġo",
        "ver"
      ],
      [
        "ke",
        "y"
      ],
      [
        "Ġs",
        "ons"
      ],
      [
        "â",
        "Ģ"
      ],
      [
        "Ġsa",
        "cri"
      ],
      [
        "Ġo",
        "wn"
      ],
      [
        "Ġan",
        "y"
      ],
      [
        "Ġc",
        "ons"
      ],
      [
        "Ġe",
        "le"
      ],
      [
        "h",
        "an"
      ],
      [
        "Ġt",
        "im"
      ],
      [
        "ct",
        "ed"
      ],
      [
        "ĠBhar",
        "ata"
      ],
      [
        "n",
        "g"
      ],
      [
        "av",
        "a"
      ],
      [
        "j",
        "e"
      ],
      [
        "Ġb",
        "ro"
      ],
      [
        ")",
        "."
      ],
      [
        "av",
        "as"
      ],
      [
        "Ġc",
        "har"
      ],
      [
        "th",
        "ira"
      ],
      [
        "Ġ",
        "im"
      ],
      [
        "ay",
        "ing"
      ],
      [
        "ju",
        "na"
      ],
      [
        "r",
        "juna"
      ],
      [
        "as",
        "h"
      ],
      [
        "Ġas",
        "ce"
      ],
      [
        "Ġin",
        "to"
      ],
      [
        "Ġb",
        "od"
      ],
      [
        "Ġl",
        "ord"
      ],
      [
        "an",
        "as"
      ],
      [
        "Å",
        "Ł"
      ],
      [
        "u",
        "res"
      ],
      [
        "Ġ",
        "T"
      ],
      [
        "Ġa",
        "way"
      ],
      [
        "a",
        "f"
      ],
      [
        "Ġo",
        "ut"
      ],
      [
        "Ġof",
        "f"
      ],
      [
        "arri",
        "ors"
      ],
      [
        "m",
        "ed"
      ],
      [
        "Ġcelesti",
        "als"
      ],
      [
        "u",
        "ll"
      ],
      [
        "Ġwe",
        "ll"
      ],
      [
        "Ġe",
        "very"
      ],
      [
        "Ġman",
        "y"
      ],
      [
        "r",
        "on"
      ],
      [
        "Ġtw",
        "o"
      ],
      [
        "j",
        "o"
      ],
      [
        "i",
        "p"
      ],
      [
        "en",
        "s"
      ],
      [
        "ud",
        "hish"
      ],
      [
        "Ġgo",
        "od"
      ],
      [
        "res",
        "sed"
      ],
      [
        "udhish",
        "thira"
      ],
      [
        "ay",
        "a"
      ],
      [
        "ĠA",
        "nd"
      ],
      [
        "ing",
        "s"
      ],
      [
        "Ġwe",
        "ap"
      ],
      [
        "ĠR",
        "ish"
      ],
      [
        "r",
        "in"
      ],
      [
        "Ġmon",
        "key"
      ],
      [
        "an",
        "s"
      ],
      [
        "se",
        "mb"
      ],
      [
        "r",
        "y"
      ],
      [
        "Ġh",
        "u"
      ],
      [
        "os",
        "s"
      ],
      [
        "ar",
        "ds"
      ],
      [
        "Ġfor",
        "m"
      ],
      [
        "Ġpower",
        "ful"
      ],
      [
        "Ġele",
        "p"
      ],
      [
        "Ġtim",
        "e"
      ],
      [
        "Ġ",
        "very"
      ],
      [
        "Ġt",
        "ru"
      ],
      [
        "Ġen",
        "em"
      ],
      [
        "way",
        "s"
      ],
      [
        "v",
        "ing"
      ],
      [
        "Ġbe",
        "h"
      ],
      [
        "e",
        "p"
      ],
      [
        "Ġp",
        "la"
      ],
      [
        ")",
        ","
      ],
      [
        "Ġaf",
        "ter"
      ],
      [
        "Ġac",
        "qu"
      ],
      [
        "Ġf",
        "l"
      ],
      [
        "ĠI",
        "nd"
      ],
      [
        "au",
        "ght"
      ],
      [
        "ar",
        "na"
      ],
      [
        "Ġv",
        "i"
      ],
      [
        "le",
        "as"
      ],
      [
        "Ġu",
        "nder"
      ],
      [
        "ĠRÄģ",
        "ma"
      ],
      [
        "Ġf",
        "ear"
      ],
      [
        "th",
        "a"
      ],
      [
        "Ġm",
        "oun"
      ],
      [
        "l",
        "i"
      ],
      [
        "Ġit",
        "s"
      ],
      [
        "Ġf",
        "ire"
      ],
      [
        "r",
        "it"
      ],
      [
        "H",
        "e"
      ],
      [
        "p",
        "l"
      ],
      [
        "Ġsu",
        "ch"
      ],
      [
        "i",
        "er"
      ],
      [
        "as",
        "s"
      ],
      [
        "Ġal",
        "ways"
      ],
      [
        "Ġ",
        "if"
      ],
      [
        "l",
        "ing"
      ],
      [
        "t",
        "ing"
      ],
      [
        "Ġne",
        "ver"
      ],
      [
        "Ġhe",
        "ad"
      ],
      [
        "ak",
        "ing"
      ],
      [
        "us",
        "h"
      ],
      [
        "ron",
        "a"
      ],
      [
        "Ġfo",
        "ll"
      ],
      [
        "ĠBh",
        "im"
      ],
      [
        "Ġasce",
        "tic"
      ],
      [
        "e",
        "ed"
      ],
      [
        "ish",
        "ed"
      ],
      [
        "Ġbeg",
        "an"
      ],
      [
        "Ġra",
        "ce"
      ],
      [
        "Ġli",
        "fe"
      ],
      [
        "ĠK",
        "ur"
      ],
      [
        "j",
        "aya"
      ],
      [
        "Ġ",
        "Wh"
      ],
      [
        "Ġad",
        "d"
      ],
      [
        "Ġd",
        "u"
      ],
      [
        "Ġd",
        "id"
      ],
      [
        "Ġb",
[...]
